{
  "version": "1.0",
  "truncation": null,
  "padding": null,
  "added_tokens": [
    {
      "id": 0,
      "content": "<pad>",
      "single_word": false,
      "lstrip": false,
      "rstrip": false,
      "normalized": false,
      "special": true
    },
    {
      "id": 1,
      "content": "<bos>",
      "single_word": false,
      "lstrip": false,
      "rstrip": false,
      "normalized": false,
      "special": true
    },
    {
      "id": 2,
      "content": "<eos>",
      "single_word": false,
      "lstrip": false,
      "rstrip": false,
      "normalized": false,
      "special": true
    },
    {
      "id": 3,
      "content": "<user>",
      "single_word": false,
      "lstrip": false,
      "rstrip": false,
      "normalized": false,
      "special": true
    },
    {
      "id": 4,
      "content": "<assistant>",
      "single_word": false,
      "lstrip": false,
      "rstrip": false,
      "normalized": false,
      "special": true
    }
  ],
  "normalizer": null,
  "pre_tokenizer": {
    "type": "ByteLevel",
    "add_prefix_space": false,
    "trim_offsets": true,
    "use_regex": true
  },
  "post_processor": null,
  "decoder": {
    "type": "ByteLevel",
    "add_prefix_space": true,
    "trim_offsets": true,
    "use_regex": true
  },
  "model": {
    "type": "BPE",
    "dropout": null,
    "unk_token": null,
    "continuing_subword_prefix": null,
    "end_of_word_suffix": null,
    "fuse_unk": false,
    "byte_fallback": false,
    "ignore_merges": false,
    "vocab": {
      "<pad>": 0,
      "<bos>": 1,
      "<eos>": 2,
      "<user>": 3,
      "<assistant>": 4,
      "!": 5,
      "\"": 6,
      "#": 7,
      "$": 8,
      "%": 9,
      "&": 10,
      "'": 11,
      "(": 12,
      ")": 13,
      "*": 14,
      "+": 15,
      ",": 16,
      "-": 17,
      ".": 18,
      "/": 19,
      "0": 20,
      "1": 21,
      "2": 22,
      "3": 23,
      "4": 24,
      "5": 25,
      "6": 26,
      "7": 27,
      "8": 28,
      "9": 29,
      ":": 30,
      ";": 31,
      "<": 32,
      "=": 33,
      ">": 34,
      "?": 35,
      "@": 36,
      "A": 37,
      "B": 38,
      "C": 39,
      "D": 40,
      "E": 41,
      "F": 42,
      "G": 43,
      "H": 44,
      "I": 45,
      "J": 46,
      "K": 47,
      "L": 48,
      "M": 49,
      "N": 50,
      "O": 51,
      "P": 52,
      "Q": 53,
      "R": 54,
      "S": 55,
      "T": 56,
      "U": 57,
      "V": 58,
      "W": 59,
      "X": 60,
      "Y": 61,
      "Z": 62,
      "[": 63,
      "\\": 64,
      "]": 65,
      "^": 66,
      "_": 67,
      "`": 68,
      "a": 69,
      "b": 70,
      "c": 71,
      "d": 72,
      "e": 73,
      "f": 74,
      "g": 75,
      "h": 76,
      "i": 77,
      "j": 78,
      "k": 79,
      "l": 80,
      "m": 81,
      "n": 82,
      "o": 83,
      "p": 84,
      "q": 85,
      "r": 86,
      "s": 87,
      "t": 88,
      "u": 89,
      "v": 90,
      "w": 91,
      "x": 92,
      "y": 93,
      "z": 94,
      "{": 95,
      "|": 96,
      "}": 97,
      "~": 98,
      "¡": 99,
      "¢": 100,
      "£": 101,
      "¤": 102,
      "¥": 103,
      "¦": 104,
      "§": 105,
      "¨": 106,
      "©": 107,
      "ª": 108,
      "«": 109,
      "¬": 110,
      "®": 111,
      "¯": 112,
      "°": 113,
      "±": 114,
      "²": 115,
      "³": 116,
      "´": 117,
      "µ": 118,
      "¶": 119,
      "·": 120,
      "¸": 121,
      "¹": 122,
      "º": 123,
      "»": 124,
      "¼": 125,
      "½": 126,
      "¾": 127,
      "¿": 128,
      "À": 129,
      "Á": 130,
      "Â": 131,
      "Ã": 132,
      "Ä": 133,
      "Å": 134,
      "Æ": 135,
      "Ç": 136,
      "È": 137,
      "É": 138,
      "Ê": 139,
      "Ë": 140,
      "Ì": 141,
      "Í": 142,
      "Î": 143,
      "Ï": 144,
      "Ð": 145,
      "Ñ": 146,
      "Ò": 147,
      "Ó": 148,
      "Ô": 149,
      "Õ": 150,
      "Ö": 151,
      "×": 152,
      "Ø": 153,
      "Ù": 154,
      "Ú": 155,
      "Û": 156,
      "Ü": 157,
      "Ý": 158,
      "Þ": 159,
      "ß": 160,
      "à": 161,
      "á": 162,
      "â": 163,
      "ã": 164,
      "ä": 165,
      "å": 166,
      "æ": 167,
      "ç": 168,
      "è": 169,
      "é": 170,
      "ê": 171,
      "ë": 172,
      "ì": 173,
      "í": 174,
      "î": 175,
      "ï": 176,
      "ð": 177,
      "ñ": 178,
      "ò": 179,
      "ó": 180,
      "ô": 181,
      "õ": 182,
      "ö": 183,
      "÷": 184,
      "ø": 185,
      "ù": 186,
      "ú": 187,
      "û": 188,
      "ü": 189,
      "ý": 190,
      "þ": 191,
      "ÿ": 192,
      "Ā": 193,
      "ā": 194,
      "Ă": 195,
      "ă": 196,
      "Ą": 197,
      "ą": 198,
      "Ć": 199,
      "ć": 200,
      "Ĉ": 201,
      "ĉ": 202,
      "Ċ": 203,
      "ċ": 204,
      "Č": 205,
      "č": 206,
      "Ď": 207,
      "ď": 208,
      "Đ": 209,
      "đ": 210,
      "Ē": 211,
      "ē": 212,
      "Ĕ": 213,
      "ĕ": 214,
      "Ė": 215,
      "ė": 216,
      "Ę": 217,
      "ę": 218,
      "Ě": 219,
      "ě": 220,
      "Ĝ": 221,
      "ĝ": 222,
      "Ğ": 223,
      "ğ": 224,
      "Ġ": 225,
      "ġ": 226,
      "Ģ": 227,
      "ģ": 228,
      "Ĥ": 229,
      "ĥ": 230,
      "Ħ": 231,
      "ħ": 232,
      "Ĩ": 233,
      "ĩ": 234,
      "Ī": 235,
      "ī": 236,
      "Ĭ": 237,
      "ĭ": 238,
      "Į": 239,
      "į": 240,
      "İ": 241,
      "ı": 242,
      "Ĳ": 243,
      "ĳ": 244,
      "Ĵ": 245,
      "ĵ": 246,
      "Ķ": 247,
      "ķ": 248,
      "ĸ": 249,
      "Ĺ": 250,
      "ĺ": 251,
      "Ļ": 252,
      "ļ": 253,
      "Ľ": 254,
      "ľ": 255,
      "Ŀ": 256,
      "ŀ": 257,
      "Ł": 258,
      "ł": 259,
      "Ń": 260,
      "he": 261,
      "Ġt": 262,
      "Ġa": 263,
      "Ġs": 264,
      "nd": 265,
      "Ġw": 266,
      "Ġthe": 267,
      "ed": 268,
      "Ġand": 269,
      "Ġto": 270,
      "Ġb": 271,
      "in": 272,
      "Ġh": 273,
      "Ġwa": 274,
      "re": 275,
      "ou": 276,
      "Ġf": 277,
      "it": 278,
      "Ġl": 279,
      "Ġc": 280,
      "er": 281,
      "Ġd": 282,
      "Ġhe": 283,
      "Ġm": 284,
      "Ġwas": 285,
      "Ġp": 286,
      "om": 287,
      "ĠT": 288,
      "Ġo": 289,
      "ay": 290,
      "ar": 291,
      "is": 292,
      "ing": 293,
      "il": 294,
      "Ġg": 295,
      "id": 296,
      "at": 297,
      "en": 298,
      "Ġn": 299,
      "Ġsa": 300,
      "Ġha": 301,
      "ĠS": 302,
      "ĠThe": 303,
      "an": 304,
      "im": 305,
      "or": 306,
      "on": 307,
      "Ġit": 308,
      "Ġth": 309,
      "ll": 310,
      "le": 311,
      "ĠH": 312,
      "Ġher": 313,
      "et": 314,
      "ot": 315,
      "ir": 316,
      "ĠShe": 317,
      "es": 318,
      "ĠHe": 319,
      "end": 320,
      "Ġin": 321,
      "ver": 322,
      "ut": 323,
      "ow": 324,
      "ck": 325,
      "ĠThey": 326,
      "Ġu": 327,
      "ld": 328,
      "oo": 329,
      "Ġy": 330,
      "Ġsaid": 331,
      "ig": 332,
      "ex": 333,
      "Ġr": 334,
      "ily": 335,
      "Ġbe": 336,
      "am": 337,
      "Ġst": 338,
      "Ġ\"": 339,
      "ĠI": 340,
      "ce": 341,
      "ke": 342,
      "Ġshe": 343,
      "pp": 344,
      "ve": 345,
      "ith": 346,
      "Ġwith": 347,
      "On": 348,
      "Lily": 349,
      "ï¼": 350,
      "Ġon": 351,
      "Ġof": 352,
      "ked": 353,
      "ri": 354,
      "Ġso": 355,
      "Ġyou": 356,
      "Ġhis": 357,
      "ft": 358,
      "nt": 359,
      "Ġpl": 360,
      "ad": 361,
      "very": 362,
      "Ġday": 363,
      "Ġthat": 364,
      "Ġup": 365,
      "ä¸": 366,
      "el": 367,
      "Ġhad": 368,
      "st": 369,
      "Ġplay": 370,
      "Ġthey": 371,
      "ext": 372,
      "ĠLily": 373,
      "Ġwe": 374,
      "Ġmom": 375,
      "Ġe": 376,
      "Ġfor": 377,
      "ãĢ": 378,
      "ĠB": 379,
      "un": 380,
      "ould": 381,
      "The": 382,
      "my": 383,
      "'s": 384,
      "oft": 385,
      "<|": 386,
      "|>": 387,
      "endoft": 388,
      "endoftext": 389,
      "Ġli": 390,
      "ch": 391,
      "Ġhapp": 392,
      "ent": 393,
      "itt": 394,
      "Ġwant": 395,
      "Ġsh": 396,
      "out": 397,
      "her": 398,
      "ĠĊ": 399,
      "ï¼Į": 400,
      "ly": 401,
      "Ġdo": 402,
      "ome": 403,
      "Ġvery": 404,
      "se": 405,
      "Ġnot": 406,
      "ound": 407,
      "all": 408,
      "Ġwh": 409,
      "ime": 410,
      "ittle": 411,
      "al": 412,
      "Ġk": 413,
      "Ġtime": 414,
      "Ġlittle": 415,
      "Ġthere": 416,
      "äº": 417,
      "ht": 418,
      "ĠM": 419,
      "Ġhappy": 420,
      "Ġre": 421,
      "Ġbig": 422,
      "Ġsm": 423,
      "ĠIt": 424,
      "Ġis": 425,
      "Ġbut": 426,
      "ack": 427,
      "Ġan": 428,
      "Ġsaw": 429,
      "riend": 430,
      "ra": 431,
      "Ġfriend": 432,
      "ry": 433,
      "Ġas": 434,
      "Ġne": 435,
      ".\"": 436,
      "ide": 437,
      "One": 438,
      "ake": 439,
      "'t": 440,
      "ug": 441,
      "Ġloo": 442,
      "ved": 443,
      "Ġwere": 444,
      "Once": 445,
      "ore": 446,
      "!\"": 447,
      "ec": 448,
      "Ġlo": 449,
      "Ġhim": 450,
      "Ġbo": 451,
      "Ġtoo": 452,
      "Ġgo": 453,
      "Ġse": 454,
      "ãĢĤ": 455,
      "irl": 456,
      "Ġj": 457,
      "ard": 458,
      "Ġwanted": 459,
      "ĠTim": 460,
      "ill": 461,
      "Ġgirl": 462,
      "Ġupon": 463,
      "Ġare": 464,
      "åħ": 465,
      "Ġout": 466,
      "Ġthem": 467,
      "Ġsp": 468,
      "Ġat": 469,
      "ind": 470,
      "fu": 471,
      "way": 472,
      "ur": 473,
      "ĠA": 474,
      "Ġtheir": 475,
      "Ġcould": 476,
      "Ġdid": 477,
      "hen": 478,
      "Ġsmil": 479,
      "ain": 480,
      "Ġhave": 481,
      "å¹": 482,
      "art": 483,
      "hed": 484,
      "ic": 485,
      "ter": 486,
      "åĽ": 487,
      "Ġex": 488,
      "rom": 489,
      "æľ": 490,
      "Ġar": 491,
      "Ġwent": 492,
      "ĠJ": 493,
      "Ġcan": 494,
      "lp": 495,
      "hing": 496,
      "ful": 497,
      "ood": 498,
      "Ġfriends": 499,
      "ight": 500,
      "Ġall": 501,
      "ĠBen": 502,
      "Ġkn": 503,
      "Ġnam": 504,
      "Ġhelp": 505,
      "um": 506,
      "one": 507,
      "?\"": 508,
      "åĨ": 509,
      "Ġback": 510,
      "ark": 511,
      "åı": 512,
      "Ġsay": 513,
      "Ġcl": 514,
      "Ġfun": 515,
      "are": 516,
      "You": 517,
      "Ġno": 518,
      "Ġle": 519,
      "ĠTom": 520,
      "âĢ": 521,
      "op": 522,
      "å¹´": 523,
      "Ġsc": 524,
      "Ġal": 525,
      "ä»": 526,
      "Ġnamed": 527,
      "oug": 528,
      "elt": 529,
      "Ġsmiled": 530,
      "side": 531,
      "Ġloved": 532,
      "ĠOne": 533,
      "Ġman": 534,
      "ick": 535,
      "Ġfelt": 536,
      "Ġasked": 537,
      "Ġfe": 538,
      "Ġtoy": 539,
      "Ġlike": 540,
      "Ġaround": 541,
      "Ġlooked": 542,
      "æĶ": 543,
      "åĨĽ": 544,
      "omet": 545,
      "Ġsome": 546,
      "ame": 547,
      "Ġsee": 548,
      "ure": 549,
      "ĠW": 550,
      "Ġme": 551,
      "ĠTimmy": 552,
      "Ġro": 553,
      "Ġbr": 554,
      "Ġwould": 555,
      "Ġboy": 556,
      "get": 557,
      "Ġbir": 558,
      "ice": 559,
      "Ġstart": 560,
      "ong": 561,
      "åį": 562,
      "å°": 563,
      "ä¸Ń": 564,
      "as": 565,
      "Ġsomet": 566,
      "Ġbird": 567,
      "äºº": 568,
      "Ġag": 569,
      "ings": 570,
      "ade": 571,
      "Ġfa": 572,
      "çļ": 573,
      "Ġwor": 574,
      "dd": 575,
      "Ġwhat": 576,
      "king": 577,
      "Ġmake": 578,
      "åĽ½": 579,
      "Ġaway": 580,
      "own": 581,
      "Ġran": 582,
      "çļĦ": 583,
      "ĠBut": 584,
      "gether": 585,
      "Ġtre": 586,
      "ag": 587,
      "ie": 588,
      "Ġstarted": 589,
      ",\"": 590,
      "ared": 591,
      "oud": 592,
      "ĠYou": 593,
      "Ġmade": 594,
      "Ġsomething": 595,
      "Ġsays": 596,
      "Ġtogether": 597,
      "ited": 598,
      "Ġco": 599,
      "åľ": 600,
      "ther": 601,
      "Ġpark": 602,
      "Ġcar": 603,
      "Ġsad": 604,
      "å¤": 605,
      "Ġexc": 606,
      "Ġother": 607,
      "Ġfrom": 608,
      "ĠL": 609,
      "Ġnew": 610,
      "Ġput": 611,
      "Ġpr": 612,
      "ell": 613,
      "ble": 614,
      "Ġagain": 615,
      "Ġhug": 616,
      "Ġla": 617,
      "Ġhome": 618,
      "ss": 619,
      "Ġmu": 620,
      "Ġwhen": 621,
      "ep": 622,
      "if": 623,
      "ach": 624,
      "ook": 625,
      "Ġwho": 626,
      "est": 627,
      "Ġgood": 628,
      "Ġthen": 629,
      "Ġdec": 630,
      "ried": 631,
      "Ġfl": 632,
      "Ġfound": 633,
      "Ġch": 634,
      "pped": 635,
      "æĸ": 636,
      "ĠE": 637,
      "Ġwal": 638,
      "qu": 639,
      "Ġget": 640,
      "æ°": 641,
      "hat": 642,
      "ought": 643,
      "Ġplaying": 644,
      "ally": 645,
      "Ġsw": 646,
      "pl": 647,
      "æĹ": 648,
      "Ġthings": 649,
      "ç«": 650,
      "Ġexcited": 651,
      "ous": 652,
      "uck": 653,
      "Ġgot": 654,
      "ro": 655,
      "Ġliked": 656,
      "nn": 657,
      "ided": 658,
      "åĲ": 659,
      "ãĢģ": 660,
      "Ġdecided": 661,
      "Ġevery": 662,
      "ave": 663,
      "Ġbl": 664,
      "Ġcame": 665,
      "å®": 666,
      "Ġv": 667,
      "19": 668,
      "ĠD": 669,
      "Ġone": 670,
      "åĮ": 671,
      "Ġdown": 672,
      "Ġscared": 673,
      "ust": 674,
      "ara": 675,
      "ax": 676,
      "å¾": 677,
      "Ġdog": 678,
      "ĠMom": 679,
      "Ġyour": 680,
      "Ġfind": 681,
      "ouse": 682,
      "Ġthan": 683,
      "Ġcare": 684,
      "Ġbec": 685,
      "çĶ": 686,
      "ap": 687,
      "ist": 688,
      "Ġfeel": 689,
      "ny": 690,
      "Ġdad": 691,
      "udd": 692,
      "ue": 693,
      "Ġab": 694,
      "è§": 695,
      "us": 696,
      "Ġke": 697,
      "Ġgr": 698,
      "They": 699,
      "nna": 700,
      "our": 701,
      "ways": 702,
      "Ġgra": 703,
      "arn": 704,
      "Ġdidn": 705,
      "ers": 706,
      "Ġmy": 707,
      "Ġlook": 708,
      "Ġwill": 709,
      "ess": 710,
      "fe": 711,
      "Ġalways": 712,
      "ant": 713,
      "Ġtook": 714,
      "ĠF": 715,
      "æ°ĳ": 716,
      "nder": 717,
      "Ġlot": 718,
      "Ġabout": 719,
      "Ġpo": 720,
      "Ġmommy": 721,
      "bb": 722,
      "Ġkne": 723,
      "Ġball": 724,
      "eci": 725,
      "åĪ": 726,
      "ise": 727,
      "Ġoutside": 728,
      "Ġtoys": 729,
      "Ġtree": 730,
      "ite": 731,
      "ched": 732,
      "ened": 733,
      "Ġthought": 734,
      "ĠSam": 735,
      "éĥ": 736,
      "Ġta": 737,
      "Ġmore": 738,
      "Ġint": 739,
      "ä¸ŃåĽ½": 740,
      "ä¸Ģ": 741,
      "Ġold": 742,
      "Ġho": 743,
      "Ġlearn": 744,
      "ï¼Ī": 745,
      "Ġspeci": 746,
      "Ġknow": 747,
      "ret": 748,
      "Ġspecial": 749,
      "ï¼ī": 750,
      "ged": 751,
      "Ġlaug": 752,
      "Ġtake": 753,
      "ive": 754,
      "Ġknew": 755,
      "Ġcat": 756,
      "udden": 757,
      "Ġpe": 758,
      "ia": 759,
      "Ġsor": 760,
      "Ġany": 761,
      "è§£": 762,
      "fter": 763,
      "Ġtr": 764,
      "ĠMax": 765,
      "ma": 766,
      "æĶ¾": 767,
      "Ġhow": 768,
      "ä½": 769,
      "uddenly": 770,
      "èĢ": 771,
      "æľĪ": 772,
      "æĪ": 773,
      "Ġshow": 774,
      "au": 775,
      "è§£æĶ¾": 776,
      "Ġmuch": 777,
      "ä¹": 778,
      "ish": 779,
      "ink": 780,
      "But": 781,
      "Ġtw": 782,
      "Ġrun": 783,
      "Ġsl": 784,
      "æĺ": 785,
      "and": 786,
      "åŃ": 787,
      "ven": 788,
      "Ġsorry": 789,
      "Ġsk": 790,
      "å¸": 791,
      "Ġop": 792,
      "äººæ°ĳ": 793,
      "Ġhand": 794,
      "Ġhouse": 795,
      "Ġmo": 796,
      "çº": 797,
      "å·": 798,
      "ä»»": 799,
      "Ġinto": 800,
      "Ġor": 801,
      "Ġclo": 802,
      "Ġsun": 803,
      "Ġtried": 804,
      "Ġwater": 805,
      "Ġinside": 806,
      "éķ": 807,
      "ĠEvery": 808,
      "ate": 809,
      "Ġqu": 810,
      "Ġcouldn": 811,
      "Ġen": 812,
      "ç¬": 813,
      "Ġtold": 814,
      "ion": 815,
      "Ġproud": 816,
      "ank": 817,
      "ump": 818,
      "å¼": 819,
      "Ġnever": 820,
      "Ġgave": 821,
      "Ġover": 822,
      "Ġif": 823,
      "ace": 824,
      "åĳ": 825,
      "by": 826,
      "Ġheard": 827,
      "dy": 828,
      "ç¬¬": 829,
      "ty": 830,
      "Ġexpl": 831,
      "ause": 832,
      "Ġeat": 833,
      "Tom": 834,
      "other": 835,
      "Ġthis": 836,
      "Ġroom": 837,
      "åĬ": 838,
      "Ġeach": 839,
      "ge": 840,
      "ĠWe": 841,
      "ĠSara": 842,
      "ak": 843,
      "Ġpick": 844,
      "âĢľ": 845,
      "âĢĿ": 846,
      "etter": 847,
      "Ġplayed": 848,
      "Ġpret": 849,
      "Ġgre": 850,
      "ä¸ŃåĽ½äººæ°ĳ": 851,
      "here": 852,
      "Ġcom": 853,
      "Ġjust": 854,
      "Ġstr": 855,
      "Ġhugged": 856,
      "oth": 857,
      "ĠAnna": 858,
      "Mom": 859,
      "Ġbox": 860,
      "Ġoff": 861,
      "Ġwat": 862,
      "éĥ¨": 863,
      "Ġbecause": 864,
      "è§£æĶ¾åĨĽ": 865,
      "æĹ¥": 866,
      "sed": 867,
      "Ġneed": 868,
      "Ġnice": 869,
      "ile": 870,
      "å±": 871,
      "iz": 872,
      "ä¸ŃåĽ½äººæ°ĳè§£æĶ¾åĨĽ": 873,
      "Ġmany": 874,
      "Ġsmall": 875,
      "Ġjo": 876,
      "Ġlong": 877,
      "Ġbu": 878,
      "åĭ": 879,
      "uc": 880,
      "Ġbear": 881,
      "ving": 882,
      "Ġfo": 883,
      "imal": 884,
      "ine": 885,
      "ort": 886,
      "'m": 887,
      "Ġanimal": 888,
      "ough": 889,
      "Ġunt": 890,
      "Ġtry": 891,
      "ild": 892,
      "åľ¨": 893,
      "gry": 894,
      "Ġsn": 895,
      "Ġuntil": 896,
      "ĠJack": 897,
      "æĶ¿": 898,
      "sel": 899,
      "åī": 900,
      "æŃ": 901,
      "å§": 902,
      "ĠC": 903,
      "Ġlearned": 904,
      "Ġbetter": 905,
      "em": 906,
      "urt": 907,
      "Ġkind": 908,
      "Ġlove": 909,
      "Ġcall": 910,
      "Ġend": 911,
      "æ²": 912,
      "Ġim": 913,
      "He": 914,
      "Ġflow": 915,
      "ars": 916,
      "aut": 917,
      "å°Ĩ": 918,
      "Ġad": 919,
      "vent": 920,
      "urn": 921,
      "ull": 922,
      "ady": 923,
      "Ġbest": 924,
      "ĠJo": 925,
      "ber": 926,
      "urp": 927,
      "Ġcle": 928,
      "ĠAnd": 929,
      "Ġdre": 930,
      "Ġbeaut": 931,
      "ves": 932,
      "ĠSo": 933,
      "Ġsky": 934,
      "arden": 935,
      "Ġgarden": 936,
      "ĠMia": 937,
      "Ġfast": 938,
      "Ġthanked": 939,
      "pt": 940,
      "Ġeven": 941,
      "Ġcareful": 942,
      "Yes": 943,
      "éķ¿": 944,
      "Ġbra": 945,
      "Ġdon": 946,
      "åº": 947,
      "è¡": 948,
      "Ġby": 949,
      "lly": 950,
      "Ġlaughed": 951,
      "éĢ": 952,
      "Ġfi": 953,
      "Ġjump": 954,
      "Ġche": 955,
      "ies": 956,
      "äºĮ": 957,
      "ĠHer": 958,
      "åĮº": 959,
      "Ġloud": 960,
      "self": 961,
      "Th": 962,
      "Ġlots": 963,
      "èĩ": 964,
      "iny": 965,
      "åİ": 966,
      "ase": 967,
      "å¤§": 968,
      "Ġte": 969,
      "lew": 970,
      "Ġbeauti": 971,
      "wn": 972,
      "Ġbeautiful": 973,
      "Ġgl": 974,
      "Ġway": 975,
      "Ġfam": 976,
      "Ġcome": 977,
      "Ġstill": 978,
      "It": 979,
      "Ġra": 980,
      "Ġhard": 981,
      "Ġwo": 982,
      "Ġanimals": 983,
      "Ġlist": 984,
      "åĳĺ": 985,
      "ĠThen": 986,
      "ect": 987,
      "éĻ": 988,
      "éĺ": 989,
      "Ġhurt": 990,
      "ĠFrom": 991,
      "ct": 992,
      "ning": 993,
      "Ġstay": 994,
      "Ġunder": 995,
      "ĠHis": 996,
      "ast": 997,
      "hes": 998,
      "Ġcol": 999,
      "Ġsafe": 1000,
      "Ġcu": 1001,
      "ane": 1002,
      "ople": 1003,
      "ool": 1004,
      "ree": 1005,
      "Ġrem": 1006,
      "Ġboth": 1007,
      "è¿": 1008,
      "Ġlet": 1009,
      "be": 1010,
      "Ġbad": 1011,
      "Ġtwo": 1012,
      "Ġlived": 1013,
      "Ġits": 1014,
      "Ġbrave": 1015,
      "ĠP": 1016,
      "Ġimp": 1017,
      "åıĤ": 1018,
      "urpr": 1019,
      "Ġfamily": 1020,
      "ished": 1021,
      "Ġpeople": 1022,
      "When": 1023,
      "Ġflew": 1024,
      "ock": 1025,
      "Ġfin": 1026,
      "ob": 1027,
      "Ġsurpr": 1028,
      "Ġbook": 1029,
      "æĿ": 1030,
      "igh": 1031,
      "Ġwalked": 1032,
      "ucy": 1033,
      "Tim": 1034,
      "kay": 1035,
      "ĠâĢľ": 1036,
      "Ġsoon": 1037,
      "Ġkept": 1038,
      "Ġcalled": 1039,
      "Ġred": 1040,
      "å°ĳ": 1041,
      "fore": 1042,
      "led": 1043,
      "Ġdan": 1044,
      "Ġangry": 1045,
      "Ġshould": 1046,
      "Ġfore": 1047,
      "æĽ": 1048,
      "Ġstor": 1049,
      "20": 1050,
      "éģ": 1051,
      "åįģ": 1052,
      "Ġfly": 1053,
      "hn": 1054,
      "Ġpic": 1055,
      "ised": 1056,
      "No": 1057,
      "ĠWhen": 1058,
      "Ġrock": 1059,
      "ip": 1060,
      "Ġshare": 1061,
      "Let": 1062,
      "Ġgoing": 1063,
      "éĩ": 1064,
      "åĴ": 1065,
      "Ġkeep": 1066,
      "å§Ķ": 1067,
      "çī": 1068,
      "Ġdoor": 1069,
      "Ġclean": 1070,
      "Ġopened": 1071,
      "ummy": 1072,
      "Ġadvent": 1073,
      "Ġnow": 1074,
      "Ġbefore": 1075,
      "Ġdra": 1076,
      "ary": 1077,
      "Ġshiny": 1078,
      "Ġpretty": 1079,
      "Ġwind": 1080,
      "ä¼": 1081,
      "èĪ": 1082,
      "age": 1083,
      "Ġnoise": 1084,
      "Ġdoll": 1085,
      "dded": 1086,
      "Ġcre": 1087,
      "illy": 1088,
      "Ġcon": 1089,
      "Ġexplore": 1090,
      "åĴĮ": 1091,
      "Ġreal": 1092,
      "Ġide": 1093,
      "Ġsto": 1094,
      "Ġground": 1095,
      "Ben": 1096,
      "Ġcry": 1097,
      "Ġey": 1098,
      "Ġturn": 1099,
      "Ġfar": 1100,
      "ç»": 1101,
      "Ġfr": 1102,
      "so": 1103,
      "ied": 1104,
      "å°ĳå°Ĩ": 1105,
      "les": 1106,
      "oon": 1107,
      "Ġcolor": 1108,
      "âĢĻ": 1109,
      "oy": 1110,
      "Ġidea": 1111,
      "ture": 1112,
      "th": 1113,
      "Ġfeeling": 1114,
      "Ġun": 1115,
      "Ġalso": 1116,
      "Ġwar": 1117,
      "ç§": 1118,
      "ç«ł": 1119,
      "ç«Ļ": 1120,
      "åĩ": 1121,
      "thing": 1122,
      "Ġnext": 1123,
      "What": 1124,
      "Ġsmile": 1125,
      "Ġthr": 1126,
      "Ġwalking": 1127,
      "ĠG": 1128,
      "imb": 1129,
      "Ġpicked": 1130,
      "çº§": 1131,
      "uch": 1132,
      "Ġclimb": 1133,
      "Ġwhile": 1134,
      "That": 1135,
      "Ġadventure": 1136,
      "å¯": 1137,
      "Ġhas": 1138,
      "ĠLucy": 1139,
      "Ġbed": 1140,
      "ĠDad": 1141,
      "èİ": 1142,
      "iced": 1143,
      "ac": 1144,
      "kes": 1145,
      "Ġnodded": 1146,
      "æİ": 1147,
      "ger": 1148,
      "å¾Ĺ": 1149,
      "åįĹ": 1150,
      "Ġwr": 1151,
      "Ġtruck": 1152,
      "eet": 1153,
      "Ġpicture": 1154,
      "ious": 1155,
      "joy": 1156,
      "Ġbeing": 1157,
      "Ġgive": 1158,
      "ff": 1159,
      "Ġma": 1160,
      "èĢħ": 1161,
      "aybe": 1162,
      "Ġfood": 1163,
      "Ġclos": 1164,
      "Ġdif": 1165,
      "Ġgi": 1166,
      "Ġeyes": 1167,
      "Thank": 1168,
      "Ġstopped": 1169,
      "Ġlooking": 1170,
      "Ġwait": 1171,
      "ä¸»": 1172,
      "Ġthink": 1173,
      "Ġdel": 1174,
      "ught": 1175,
      "ember": 1176,
      "Ġtow": 1177,
      "ting": 1178,
      "Ġown": 1179,
      "Ġafter": 1180,
      "åī¯": 1181,
      "Ġbre": 1182,
      "ĠSp": 1183,
      "Ġever": 1184,
      "åĭĭ": 1185,
      "Ġgreat": 1186,
      "Ġbro": 1187,
      "å¼Ģ": 1188,
      "ĠSuddenly": 1189,
      "éĽ": 1190,
      "Ġenjoy": 1191,
      "Ġquick": 1192,
      "able": 1193,
      "è¥": 1194,
      "Ġnoticed": 1195,
      "Ġvo": 1196,
      "æķ": 1197,
      "éĿ": 1198,
      "Ġforest": 1199,
      "bbit": 1200,
      "Ġrepl": 1201,
      "Ġlisten": 1202,
      "Ġwalk": 1203,
      "Ġblue": 1204,
      "æĺ¯": 1205,
      "She": 1206,
      "maz": 1207,
      "Ġfish": 1208,
      "Suddenly": 1209,
      "Ġhands": 1210,
      "ized": 1211,
      "Ġflowers": 1212,
      "Ġrain": 1213,
      "Ġdis": 1214,
      "Ġamaz": 1215,
      "Ġremember": 1216,
      "è»": 1217,
      "å»": 1218,
      "irst": 1219,
      "Ġshout": 1220,
      "Ġapp": 1221,
      "åĭĭç«ł": 1222,
      "æľī": 1223,
      "Ġde": 1224,
      "Ġeveryone": 1225,
      "æī": 1226,
      "ted": 1227,
      "Ġimport": 1228,
      "Ġnear": 1229,
      "Ġwonder": 1230,
      "Ġslide": 1231,
      "bye": 1232,
      "èİ·": 1233,
      "è¥¿": 1234,
      "gan": 1235,
      "Ġhead": 1236,
      "Ġshowed": 1237,
      "Ġrabbit": 1238,
      "Ġbright": 1239,
      "Ġsound": 1240,
      "Ġwork": 1241,
      "Ġstrong": 1242,
      "llow": 1243,
      "çĤ": 1244,
      "Ġus": 1245,
      "bbed": 1246,
      "Ġmean": 1247,
      "ĠN": 1248,
      "ĠR": 1249,
      "æ±": 1250,
      "Ġimportant": 1251,
      "Ġwatch": 1252,
      "Ġac": 1253,
      "çĶŁ": 1254,
      "Ġright": 1255,
      "day": 1256,
      "Ġwatched": 1257,
      "Ġtal": 1258,
      "Ġquickly": 1259,
      "Ġask": 1260,
      "fere": 1261,
      "Ġreplied": 1262,
      "lease": 1263,
      "Ġdiffere": 1264,
      "Ġuse": 1265,
      "We": 1266,
      "Ġokay": 1267,
      "ä¸ī": 1268,
      "So": 1269,
      "Ġye": 1270,
      "çĽ": 1271,
      "Ġstick": 1272,
      "Ġsqu": 1273,
      "ered": 1274,
      "Ġtra": 1275,
      "Ġfollow": 1276,
      "Ġsure": 1277,
      "è®": 1278,
      "Ġboat": 1279,
      "æ²»": 1280,
      "Ġwhere": 1281,
      "ath": 1282,
      "Ġbeen": 1283,
      "Ġstore": 1284,
      "å½": 1285,
      "ĠBob": 1286,
      "Ġgoodbye": 1287,
      "Ġchild": 1288,
      "ange": 1289,
      "Ġplace": 1290,
      "Ġmor": 1291,
      "Ġyell": 1292,
      "èµ": 1293,
      "ng": 1294,
      "Ġface": 1295,
      "Ġvoice": 1296,
      "å¥": 1297,
      "Ġbecame": 1298,
      "ĠSpot": 1299,
      "åħ±": 1300,
      "Ġdress": 1301,
      "Ġdifferent": 1302,
      "Ġmag": 1303,
      "Ġour": 1304,
      "Ġdoes": 1305,
      "Ġcuri": 1306,
      "æµ": 1307,
      "Ġwarm": 1308,
      "ila": 1309,
      "Anna": 1310,
      "ĠMommy": 1311,
      "åĮĹ": 1312,
      "aught": 1313,
      "Ġhigh": 1314,
      "Ġcloser": 1315,
      "Ġhop": 1316,
      "ç«ĭ": 1317,
      "co": 1318,
      "Ġcr": 1319,
      "æĪĲ": 1320,
      "ĠSue": 1321,
      "èİ·å¾Ĺ": 1322,
      "åĨĽåĮº": 1323,
      "Look": 1324,
      "åĽ¢": 1325,
      "Ġtell": 1326,
      "ndma": 1327,
      "Ġforg": 1328,
      "Ġam": 1329,
      "leep": 1330,
      "Jo": 1331,
      "Ġnight": 1332,
      "Ġbel": 1333,
      "Ġcurious": 1334,
      "Sara": 1335,
      "ired": 1336,
      "åı¸": 1337,
      "åľĭ": 1338,
      "è·": 1339,
      "æĻ": 1340,
      "ached": 1341,
      "ount": 1342,
      "itc": 1343,
      "Ġcake": 1344,
      "Ġthree": 1345,
      "more": 1346,
      "Ġz": 1347,
      "Ġanymore": 1348,
      "Ġopen": 1349,
      "èĢĥ": 1350,
      "Ġcook": 1351,
      "æĭ": 1352,
      "Ġfav": 1353,
      "èİ·å¾ĹèĢħ": 1354,
      "Ġbutter": 1355,
      "Ġpu": 1356,
      "åĭĭç«łèİ·å¾ĹèĢħ": 1357,
      "ĠTh": 1358,
      "åĲİ": 1359,
      "Her": 1360,
      "Ġgrabbed": 1361,
      "è¯": 1362,
      "imes": 1363,
      "Ġfirst": 1364,
      "Ġblock": 1365,
      "Ġpain": 1366,
      "Ġpull": 1367,
      "Ġhere": 1368,
      "Ġlea": 1369,
      "Ġbus": 1370,
      "Ġkid": 1371,
      "iss": 1372,
      "Ġsweet": 1373,
      "è¨": 1374,
      "äºĨ": 1375,
      "Ġcont": 1376,
      "Ġhelped": 1377,
      "Ġbit": 1378,
      "Ġonly": 1379,
      "ä¸º": 1380,
      "èĩª": 1381,
      "itchen": 1382,
      "Ġkitchen": 1383,
      "unny": 1384,
      "Ġper": 1385,
      "Can": 1386,
      "Ġfell": 1387,
      "çľ": 1388,
      "Ġba": 1389,
      "Ġru": 1390,
      "Ġbirds": 1391,
      "Ġflo": 1392,
      "åĲį": 1393,
      "Ġjumped": 1394,
      "ppy": 1395,
      "orn": 1396,
      "Ġsand": 1397,
      "å£": 1398,
      "Ġhappened": 1399,
      "Ġmon": 1400,
      "Ġgrass": 1401,
      "Ġglad": 1402,
      "ĠJane": 1403,
      "çĶ±": 1404,
      "Ġstop": 1405,
      "Ġsees": 1406,
      "Ġdr": 1407,
      "ĠEveryone": 1408,
      "isy": 1409,
      "å¼ĢåĽ½": 1410,
      "è¾": 1411,
      "å±±": 1412,
      "Ġsing": 1413,
      "éĺŁ": 1414,
      "æł": 1415,
      "å¼ĢåĽ½å°ĳå°Ĩ": 1416,
      "Ġbeh": 1417,
      "Ġreached": 1418,
      "åĪĨ": 1419,
      "ä¸ŃåĽ½äººæ°ĳè§£æĶ¾åĨĽå¼ĢåĽ½å°ĳå°Ĩ": 1420,
      "After": 1421,
      "Ġbrother": 1422,
      "åĵ": 1423,
      "Ġfire": 1424,
      "æĸ°": 1425,
      "æ³": 1426,
      "Ġtri": 1427,
      "ĠAs": 1428,
      "Ġrealized": 1429,
      "nts": 1430,
      "Ġthrough": 1431,
      "Ġhaving": 1432,
      "ĠSarah": 1433,
      "åĩº": 1434,
      "Ġyummy": 1435,
      "air": 1436,
      "Ġstory": 1437,
      "çİ": 1438,
      "çĤº": 1439,
      "Ġshouted": 1440,
      "ass": 1441,
      "ï¼īï¼Į": 1442,
      "Ġgame": 1443,
      "æ´": 1444,
      "Ġprin": 1445,
      "åħļ": 1446,
      "Ġmum": 1447,
      "æĪĺ": 1448,
      "Ġlady": 1449,
      "Ġrest": 1450,
      "Ġready": 1451,
      "Ġdraw": 1452,
      "åľ°": 1453,
      "where": 1454,
      "èģ": 1455,
      "Ġmess": 1456,
      "zy": 1457,
      "Ġsoft": 1458,
      "Ġate": 1459,
      "ĠLet": 1460,
      "çĻ": 1461,
      "éĸ": 1462,
      "è¡Į": 1463,
      "ign": 1464,
      "ater": 1465,
      "Ġbegan": 1466,
      "Ġreally": 1467,
      "Ġunderst": 1468,
      "Ġmagic": 1469,
      "akes": 1470,
      "ĠDo": 1471,
      "è»Ĭ": 1472,
      "ather": 1473,
      "ins": 1474,
      "æĮ": 1475,
      "Ġpare": 1476,
      "Ġless": 1477,
      "Ġtired": 1478,
      "Ġfavor": 1479,
      "Ġhimself": 1480,
      "åħ¥": 1481,
      "'re": 1482,
      "Ġdone": 1483,
      "Ġthing": 1484,
      "Ġworld": 1485,
      "Ġwaved": 1486,
      "Ġfavorite": 1487,
      "fully": 1488,
      "Ġfill": 1489,
      "Ġhat": 1490,
      "æ¸": 1491,
      "Ġpap": 1492,
      "Ġbutterf": 1493,
      "Ġpretend": 1494,
      "Ġmaking": 1495,
      "ken": 1496,
      "ster": 1497,
      "Ġ-": 1498,
      "é¢": 1499,
      "ation": 1500,
      "æĬ": 1501,
      "Ġkids": 1502,
      "Ġcoming": 1503,
      "bo": 1504,
      "Ġfix": 1505,
      "mer": 1506,
      "Ġste": 1507,
      "Ġlooks": 1508,
      "ĠThat": 1509,
      "Mommy": 1510,
      "æĶ¿æ²»": 1511,
      "Ġpond": 1512,
      "Ġcatch": 1513,
      "Ġwhy": 1514,
      "Ġseen": 1515,
      "åħ¬": 1516,
      "åĬł": 1517,
      "Ġused": 1518,
      "ĠJoe": 1519,
      "Ġcut": 1520,
      "Ġbunny": 1521,
      "olly": 1522,
      "Ġprom": 1523,
      "Ġpart": 1524,
      "Ġworry": 1525,
      "Ġtast": 1526,
      "Ġname": 1527,
      "ä¿": 1528,
      "ĠCan": 1529,
      "Ġfunny": 1530,
      "Ġduck": 1531,
      "Ġtouch": 1532,
      "Ġflower": 1533,
      "iver": 1534,
      "Ġanother": 1535,
      "ä½ľ": 1536,
      "ç¾": 1537,
      "åİ¿": 1538,
      "sh": 1539,
      "uff": 1540,
      "Ġmouse": 1541,
      "Ġcars": 1542,
      "Ġfro": 1543,
      "Wow": 1544,
      "Ġdelic": 1545,
      "ä»¤": 1546,
      "è·¯": 1547,
      "Ġtop": 1548,
      "ient": 1549,
      "oney": 1550,
      "åŃ¦": 1551,
      "Ġswim": 1552,
      "Ġparents": 1553,
      "Ġpus": 1554,
      "rel": 1555,
      "Ġcool": 1556,
      "195": 1557,
      "ĠJohn": 1558,
      "æľ¬": 1559,
      "Ġlight": 1560,
      "æľĿ": 1561,
      "å®¶": 1562,
      "ï¼ļ": 1563,
      "åĽĽ": 1564,
      "ä¹ĭ": 1565,
      "Ġsurprise": 1566,
      "Ġworked": 1567,
      "ul": 1568,
      "eddy": 1569,
      "Ġgreen": 1570,
      "æĢ": 1571,
      "åħ«": 1572,
      "Ġcra": 1573,
      "Ġhopped": 1574,
      "Ġthank": 1575,
      "Ġcried": 1576,
      "Ġhair": 1577,
      "Ġfull": 1578,
      "Ġhold": 1579,
      "ä¸Ĭ": 1580,
      "As": 1581,
      "Ġsmell": 1582,
      "hy": 1583,
      "Timmy": 1584,
      "åıĤèĢĥ": 1585,
      "æĽ¾": 1586,
      "Don": 1587,
      "aisy": 1588,
      "åŁ": 1589,
      "Ġfloor": 1590,
      "Ġbehind": 1591,
      "Ġblocks": 1592,
      "Ġdri": 1593,
      "ards": 1594,
      "Ġbag": 1595,
      "Ġtrees": 1596,
      "Ġsleep": 1597,
      "Ġrunning": 1598,
      "Ġdro": 1599,
      "Ġyears": 1600,
      "ely": 1601,
      "ãĢĬ": 1602,
      "Ġlesson": 1603,
      "Ġdoing": 1604,
      "ãĢĭ": 1605,
      "Ġbow": 1606,
      "Ġsho": 1607,
      "Ġspot": 1608,
      "andy": 1609,
      "Ġwood": 1610,
      "Ġdin": 1611,
      "Ġread": 1612,
      "Ġwished": 1613,
      "ä»¥": 1614,
      "\".": 1615,
      "ued": 1616,
      "ren": 1617,
      "Ġlikes": 1618,
      "Ġpaper": 1619,
      "Ġwindow": 1620,
      "å·¥": 1621,
      "Ġset": 1622,
      "Ġyellow": 1623,
      "Sam": 1624,
      "ĠIn": 1625,
      "éļ": 1626,
      "John": 1627,
      "Ġsurprised": 1628,
      "Ġremembered": 1629,
      "Ġdark": 1630,
      "å¿": 1631,
      "æĸ¼": 1632,
      "Ġslow": 1633,
      "çĪ": 1634,
      "Ġsat": 1635,
      "Ġneeded": 1636,
      "Ġhappily": 1637,
      "æĺİ": 1638,
      "Ġcold": 1639,
      "ike": 1640,
      "è¢": 1641,
      "Ġcarefully": 1642,
      "Ġhole": 1643,
      "Ġlaugh": 1644,
      "aring": 1645,
      "Ġswing": 1646,
      "Ġbutterfly": 1647,
      "Ġperf": 1648,
      "å¾Į": 1649,
      "çľģ": 1650,
      "Ġtall": 1651,
      "Ġmove": 1652,
      "Ġheld": 1653,
      "Ġfrog": 1654,
      "Ġbuy": 1655,
      "ens": 1656,
      "Ġlost": 1657,
      "uit": 1658,
      "Ġanything": 1659,
      "å·ŀ": 1660,
      "ä¾": 1661,
      "é«": 1662,
      "Ġfair": 1663,
      "Ġenjoyed": 1664,
      "Ġleft": 1665,
      "Ġice": 1666,
      "Ġfinished": 1667,
      "ons": 1668,
      "ross": 1669,
      "Ġair": 1670,
      "inally": 1671,
      "å¹³": 1672,
      "Ġwrong": 1673,
      "Ġdream": 1674,
      "ined": 1675,
      "ĠAfter": 1676,
      "cess": 1677,
      "Ġarri": 1678,
      "Ġfollowed": 1679,
      "Ġchildren": 1680,
      "éĹ": 1681,
      "äºĭ": 1682,
      "ream": 1683,
      "Hell": 1684,
      "çķ": 1685,
      "Hello": 1686,
      "Ġhill": 1687,
      "Ġpre": 1688,
      "å£«": 1689,
      "Ġhun": 1690,
      "Ġrel": 1691,
      "Ġherself": 1692,
      "Ġcast": 1693,
      "Ġhear": 1694,
      "Ġdelicious": 1695,
      "Ġel": 1696,
      "Ġclose": 1697,
      "reed": 1698,
      "åı¸ä»¤": 1699,
      "Ġcontin": 1700,
      "ç§ĳ": 1701,
      "Ġdir": 1702,
      "çĲ": 1703,
      "Ġfriendly": 1704,
      "Ġforgot": 1705,
      "sp": 1706,
      "Ġunderstand": 1707,
      "Ġhid": 1708,
      "Ġbuild": 1709,
      "ield": 1710,
      "Ġhot": 1711,
      "193": 1712,
      "ds": 1713,
      "Ġtable": 1714,
      "Ġable": 1715,
      "çŃ": 1716,
      "Ġbaby": 1717,
      "Ġarm": 1718,
      "ç´": 1719,
      "çµ": 1720,
      "ä»ĸ": 1721,
      "æ¬": 1722,
      "Ġbooks": 1723,
      "Ġsnow": 1724,
      "asure": 1725,
      "Ġwonderful": 1726,
      "Ġarrived": 1727,
      "ĠLila": 1728,
      "Ġgone": 1729,
      "Ġfilled": 1730,
      "çĭ": 1731,
      "Ġelse": 1732,
      "lf": 1733,
      "Ġcolors": 1734,
      "ĠBenny": 1735,
      "Ġcreat": 1736,
      "ĠSally": 1737,
      "Ġbug": 1738,
      "è¦": 1739,
      "!âĢĿ": 1740,
      "Ġmight": 1741,
      "ash": 1742,
      "å®ī": 1743,
      "atter": 1744,
      "Ġplease": 1745,
      "Ġgent": 1746,
      "Then": 1747,
      "av": 1748,
      "æ¯": 1749,
      "ĠNow": 1750,
      "ç¥": 1751,
      "è»Ĭç«Ļ": 1752,
      "äºĮçº§": 1753,
      "ner": 1754,
      "Ġbroken": 1755,
      "Ġtight": 1756,
      "Ġyes": 1757,
      "ç·": 1758,
      "é¦": 1759,
      "ä¸ĭ": 1760,
      "ich": 1761,
      "Ġsomeone": 1762,
      "è¢«": 1763,
      "room": 1764,
      "ä¸ľ": 1765,
      "Jack": 1766,
      "åºľ": 1767,
      "æİĪ": 1768,
      "Ġleaves": 1769,
      "Ġwall": 1770,
      "Ġcontinued": 1771,
      "ĠK": 1772,
      "Ġwants": 1773,
      "è°": 1774,
      "Ġsong": 1775,
      "irrel": 1776,
      "å¸Ī": 1777,
      "ĠThere": 1778,
      "æĸĩ": 1779,
      "OK": 1780,
      "ĠDaisy": 1781,
      "åĪ°": 1782,
      "ask": 1783,
      "ĠEm": 1784,
      "åŃĲ": 1785,
      ".âĢĿ": 1786,
      "ey": 1787,
      "äºİ": 1788,
      "Ġstayed": 1789,
      "Ġfinally": 1790,
      "Ġcount": 1791,
      "Ġenough": 1792,
      "æ±Ł": 1793,
      "Ġagreed": 1794,
      "äºĶ": 1795,
      "åĲĮ": 1796,
      "Ġju": 1797,
      "Ġscary": 1798,
      "Ġsquirrel": 1799,
      "æŀ": 1800,
      "Ġmorning": 1801,
      "Ġlion": 1802,
      "Ġbreak": 1803,
      "'ll": 1804,
      "Ġvis": 1805,
      "åł": 1806,
      "icy": 1807,
      "From": 1808,
      "Ġgetting": 1809,
      "ä¼ļ": 1810,
      "ance": 1811,
      "å»º": 1812,
      "Ġmoment": 1813,
      "Ġpoin": 1814,
      "æĸ¯": 1815,
      "Ġcomp": 1816,
      "10": 1817,
      "app": 1818,
      "Ġpink": 1819,
      "é¢Ĩ": 1820,
      "Ġcastle": 1821,
      "Â·": 1822,
      "å¸Ĥ": 1823,
      "ee": 1824,
      "row": 1825,
      "åīį": 1826,
      "å§Ķåĳĺ": 1827,
      "Ġamazing": 1828,
      "è©": 1829,
      "ries": 1830,
      "Ġgrandma": 1831,
      "ä¸į": 1832,
      "ama": 1833,
      "ï¼Ľ": 1834,
      "oup": 1835,
      "Ġfew": 1836,
      "oom": 1837,
      "ence": 1838,
      "Ġwet": 1839,
      "Ġperfect": 1840,
      "Ġpi": 1841,
      "ced": 1842,
      "At": 1843,
      "Ġfall": 1844,
      "Ġtrying": 1845,
      "rot": 1846,
      "gon": 1847,
      "éģĵ": 1848,
      "Ġdinner": 1849,
      "ĠTommy": 1850,
      "ä¸ĸ": 1851,
      "åı¸ä»¤åĳĺ": 1852,
      "ĠThis": 1853,
      "ä»£": 1854,
      "Ġturned": 1855,
      "Ġhungry": 1856,
      "Ġmar": 1857,
      "Ġsmiles": 1858,
      "Ġfight": 1859,
      "Ġbeach": 1860,
      "Ġpictures": 1861,
      "èĥ": 1862,
      "der": 1863,
      "ĠMaybe": 1864,
      "Ġpuppy": 1865,
      "Ġcookies": 1866,
      "Ġsometimes": 1867,
      "Ġothers": 1868,
      "apped": 1869,
      "å¾·": 1870,
      "èĲ": 1871,
      "Ġdaddy": 1872,
      "Ġmakes": 1873,
      "oring": 1874,
      "Ġclimbed": 1875,
      "Ġmus": 1876,
      "red": 1877,
      "é«ĺ": 1878,
      "Ġwhite": 1879,
      "ĠGra": 1880,
      "è¡¨": 1881,
      "man": 1882,
      "ĠWhat": 1883,
      "Ġjoy": 1884,
      "Ġclot": 1885,
      "Ġmet": 1886,
      "åħ¨": 1887,
      "194": 1888,
      "Ġcream": 1889,
      "Ġmother": 1890,
      "Ġfur": 1891,
      "ol": 1892,
      "Ġlistened": 1893,
      "ĠBilly": 1894,
      "This": 1895,
      "Ġclothes": 1896,
      "Ġwasn": 1897,
      "Ġtalk": 1898,
      "Ġballoon": 1899,
      "ated": 1900,
      "Ġstrange": 1901,
      "ç±": 1902,
      "His": 1903,
      "è³": 1904,
      "Ġspl": 1905,
      "é»": 1906,
      "Ġbrought": 1907,
      "çĭ¬": 1908,
      "Ġtail": 1909,
      "å¤ĸ": 1910,
      "Ġsear": 1911,
      "Ġsail": 1912,
      "Ġspark": 1913,
      "amp": 1914,
      "Ġeverything": 1915,
      "èĩ³": 1916,
      "ctor": 1917,
      "Ġroll": 1918,
      "Ġthre": 1919,
      "ĠTo": 1920,
      "wl": 1921,
      "éĤ": 1922,
      "ister": 1923,
      "åĢ": 1924,
      "Ġalone": 1925,
      "Ġwoods": 1926,
      "os": 1927,
      "ĠJen": 1928,
      "Ġdeep": 1929,
      "uffy": 1930,
      "eter": 1931,
      "key": 1932,
      "ott": 1933,
      "Ġpet": 1934,
      "æĸ¹": 1935,
      "çº¢": 1936,
      "Ġpol": 1937,
      "elc": 1938,
      "ucky": 1939,
      "ower": 1940,
      "æµ·": 1941,
      "Ġgrow": 1942,
      "ang": 1943,
      "çŁ": 1944,
      "Ġamazed": 1945,
      "Ġsit": 1946,
      "ï¼Īï¼īï¼Į": 1947,
      "ever": 1948,
      "Ġride": 1949,
      "Ġpie": 1950,
      "Ġasks": 1951,
      "ope": 1952,
      "Ġwaited": 1953,
      "Oh": 1954,
      "çĶ¨": 1955,
      "me": 1956,
      "æ¨": 1957,
      "Ġpulled": 1958,
      "èŃ": 1959,
      "orm": 1960,
      "çĭ¬ç«ĭ": 1961,
      "Ġdanger": 1962,
      "Ġvisit": 1963,
      "Ġwon": 1964,
      "ix": 1965,
      "ç¨": 1966,
      "Ġcloud": 1967,
      "Ġmusic": 1968,
      "Ġhide": 1969,
      "Ġleave": 1970,
      "åĵ¡": 1971,
      "zz": 1972,
      "Ġlake": 1973,
      "Ġplan": 1974,
      "Ġpat": 1975,
      "äºĪ": 1976,
      "æľŁ": 1977,
      "Ġsilly": 1978,
      "Ġtreat": 1979,
      "ames": 1980,
      "Ġfield": 1981,
      "ç¸": 1982,
      "1955": 1983,
      "Ġside": 1984,
      "ä¸Ģçº§": 1985,
      "ssed": 1986,
      "Ġflying": 1987,
      "Ġpa": 1988,
      "Ġpen": 1989,
      "thy": 1990,
      "ãĢĮ": 1991,
      "Ġfox": 1992,
      "æĻĤ": 1993,
      "Ġruns": 1994,
      "ugg": 1995,
      "ä½į": 1996,
      "ãĢį": 1997,
      "med": 1998,
      "Max": 1999,
      "Ġland": 2000,
      "Ġbelie": 2001,
      "Ġtowards": 2002,
      "gs": 2003,
      "Ġthinks": 2004,
      "Ġteddy": 2005,
      "Ġpromised": 2006,
      "Ġowner": 2007,
      "Ġgu": 2008,
      "cket": 2009,
      "Ġcup": 2010,
      "ĠAmy": 2011,
      "èĭ": 2012,
      "éŁ": 2013,
      "iet": 2014,
      "ç¦": 2015,
      "ained": 2016,
      "Ġsister": 2017,
      "Ġshared": 2018,
      "eces": 2019,
      "ape": 2020,
      "201": 2021,
      "ises": 2022,
      "Ġsec": 2023,
      "Ġpieces": 2024,
      "igg": 2025,
      "åŃ¸": 2026,
      "Ġfaster": 2027,
      "æİĪäºĪ": 2028,
      "Ġslowly": 2029,
      "sw": 2030,
      "Ġgrate": 2031,
      "Ġparty": 2032,
      "Ġrace": 2033,
      "ĠJim": 2034,
      "Ġmoney": 2035,
      "Ġliving": 2036,
      "Ġansw": 2037,
      "åĿ": 2038,
      "æĦ": 2039,
      "Ġpaint": 2040,
      "Ġworried": 2041,
      "Maybe": 2042,
      "ä½¿": 2043,
      "ually": 2044,
      "cle": 2045,
      "ĠAll": 2046,
      "çŃī": 2047,
      "avy": 2048,
      "Ġmust": 2049,
      "Ġtreasure": 2050,
      "Ġbigger": 2051,
      "Ġgrateful": 2052,
      "Ġdance": 2053,
      "Ġbran": 2054,
      "ire": 2055,
      "Okay": 2056,
      "Ġblank": 2057,
      "Ġgift": 2058,
      "ç¬¬äºĮ": 2059,
      "éĿ¢": 2060,
      "è½": 2061,
      "èĻ": 2062,
      "up": 2063,
      "ç½": 2064,
      "äº§": 2065,
      "ling": 2066,
      "Ġsuch": 2067,
      "Ġsmart": 2068,
      "Ġquiet": 2069,
      "Ġem": 2070,
      "ph": 2071,
      "Ġcolorful": 2072,
      "Ġmagical": 2073,
      "Ġsnack": 2074,
      "unch": 2075,
      "fort": 2076,
      "Ġbott": 2077,
      "Ġwear": 2078,
      "Ġreach": 2079,
      "Ġele": 2080,
      "Ġmoral": 2081,
      "Ġplant": 2082,
      "Ġwelc": 2083,
      "ze": 2084,
      "æĹ¶": 2085,
      "Ġblanket": 2086,
      "ased": 2087,
      "Ġpot": 2088,
      "Ġcandy": 2089,
      "Ġnap": 2090,
      "Ġriver": 2091,
      "éĻ¢": 2092,
      "outh": 2093,
      "Ġeverywhere": 2094,
      "Ġjob": 2095,
      "åħŃ": 2096,
      "Ġtrain": 2097,
      "çī©": 2098,
      "Ġjoin": 2099,
      "Ġpro": 2100,
      "Ġbroke": 2101,
      "less": 2102,
      "å²": 2103,
      "Ġcho": 2104,
      "æŃ¦": 2105,
      "Ġprincess": 2106,
      "Ġblack": 2107,
      "Ġmost": 2108,
      "Ġmouth": 2109,
      "æľĥ": 2110,
      "Ġje": 2111,
      "åİŁ": 2112,
      "Ġmonster": 2113,
      "Ġbar": 2114,
      "Ġfarmer": 2115,
      "æ¼": 2116,
      "set": 2117,
      "Ġdolls": 2118,
      "çī¹": 2119,
      "ç¶": 2120,
      "ming": 2121,
      "Ġscream": 2122,
      "Ġacross": 2123,
      "æ¬¡": 2124,
      "éĢļ": 2125,
      "èĪĩ": 2126,
      "ipped": 2127,
      "æ¡": 2128,
      "Ġhelping": 2129,
      "Ġbike": 2130,
      "ĠFl": 2131,
      "å°Ĩé¢Ĩ": 2132,
      "çİĭ": 2133,
      "bble": 2134,
      "æŃ¤": 2135,
      "Ġwin": 2136,
      "Ġmix": 2137,
      "vel": 2138,
      "Ġstepped": 2139,
      "Ġcarrot": 2140,
      "Ġdangerous": 2141,
      "å¼ı": 2142,
      "Ġsign": 2143,
      "å¤©": 2144,
      "ear": 2145,
      "Ġheal": 2146,
      "Ġsame": 2147,
      "ĠDaddy": 2148,
      "ä¸ª": 2149,
      "Ġdragon": 2150,
      "Ġdoctor": 2151,
      "èī": 2152,
      "åħµ": 2153,
      "åħ¶": 2154,
      "è¨Ń": 2155,
      "ident": 2156,
      "ĠMolly": 2157,
      "Sure": 2158,
      "æ¹": 2159,
      "è´": 2160,
      "ored": 2161,
      "ere": 2162,
      "Ġcrying": 2163,
      "Ġheavy": 2164,
      "Ġdisapp": 2165,
      "Ġbee": 2166,
      "ĠJill": 2167,
      "Ġacc": 2168,
      "Ġthrew": 2169,
      "Ġbowl": 2170,
      "æĹ¥æľ¬": 2171,
      "eared": 2172,
      "Ġspr": 2173,
      "Ġcoll": 2174,
      "Ġbelieve": 2175,
      "Ġwords": 2176,
      "Ġtower": 2177,
      "Ġteac": 2178,
      "Ġdirty": 2179,
      "de": 2180,
      "é¡": 2181,
      "Ġbuck": 2182,
      "ä¸ŃåĽ½äººæ°ĳè§£æĶ¾åĨĽå°ĳå°Ĩ": 2183,
      "Ġstre": 2184,
      "Ġhig": 2185,
      "Ġbath": 2186,
      "Why": 2187,
      "Ġwouldn": 2188,
      "Ġatt": 2189,
      "æĺİæľĿ": 2190,
      "Ġclosed": 2191,
      "Ġfruit": 2192,
      "æĹħ": 2193,
      "æİĪäºĪä¸ŃåĽ½äººæ°ĳè§£æĶ¾åĨĽå°ĳå°Ĩ": 2194,
      "Ġstuck": 2195,
      "Ġtwins": 2196,
      "æĽ¾ä»»": 2197,
      "iting": 2198,
      "èĩªçĶ±": 2199,
      "Ġbite": 2200,
      "chool": 2201,
      "Ġbutt": 2202,
      "Ġmonkey": 2203,
      "å°Ķ": 2204,
      "åįĢ": 2205,
      "æł¡": 2206,
      "br": 2207,
      "éĩĮ": 2208,
      "Ġpers": 2209,
      "Ġtown": 2210,
      "asket": 2211,
      "Hi": 2212,
      "Ġheart": 2213,
      "Ġbasket": 2214,
      "Ġfairy": 2215,
      "åģ": 2216,
      "æ½": 2217,
      "Ġmin": 2218,
      "Ġ(": 2219,
      "Ġhoped": 2220,
      "è£": 2221,
      "cked": 2222,
      "éķ·": 2223,
      "æ³ķ": 2224,
      "Ġeating": 2225,
      "ç·ļ": 2226,
      "Ġschool": 2227,
      "Ġneigh": 2228,
      "Ġteacher": 2229,
      "ord": 2230,
      "Ġsuddenly": 2231,
      "pping": 2232,
      "ĠMr": 2233,
      "Ġclapped": 2234,
      "Ġneighb": 2235,
      "Mia": 2236,
      "Ġcheered": 2237,
      "Ġcour": 2238,
      "Ġpack": 2239,
      "Ġhigher": 2240,
      "è¶": 2241,
      "ventually": 2242,
      "umb": 2243,
      "åħ±äº§": 2244,
      "18": 2245,
      "Ġfeels": 2246,
      "Ġstand": 2247,
      "åı°": 2248,
      "ä¸ŃåĽ½äººæ°ĳè§£æĶ¾åĨĽå°Ĩé¢Ĩ": 2249,
      "Ġhit": 2250,
      "Ġtoday": 2251,
      "Ġgentle": 2252,
      "Ġwithout": 2253,
      "çĭ¬ç«ĭèĩªçĶ±": 2254,
      "Ġbrown": 2255,
      "ier": 2256,
      "Ġ3": 2257,
      "Ġyard": 2258,
      "Ġcray": 2259,
      "Ġchair": 2260,
      "Ġaccident": 2261,
      "æĹı": 2262,
      "Ġpushed": 2263,
      "Ġsmo": 2264,
      "çı": 2265,
      "ors": 2266,
      "Ġforget": 2267,
      "ract": 2268,
      "ourn": 2269,
      "Ġlonger": 2270,
      "Ġdry": 2271,
      "Ġpocket": 2272,
      "Ġwings": 2273,
      "Ġcourse": 2274,
      "Finally": 2275,
      "Ġwelcome": 2276,
      "Ġfree": 2277,
      "orrow": 2278,
      "æĿ±": 2279,
      "Ġfence": 2280,
      "ä¸ĥ": 2281,
      "Ġlon": 2282,
      "ç¾İ": 2283,
      "Ġdrove": 2284,
      "Ġgames": 2285,
      "Ġhappen": 2286,
      "ä¸»ä»»": 2287,
      "ho": 2288,
      "issed": 2289,
      "Ġjourn": 2290,
      "åıĬ": 2291,
      "ä¸Ģçº§è§£æĶ¾": 2292,
      "Ġswings": 2293,
      "åĽł": 2294,
      "Ġthrow": 2295,
      "Ġlonely": 2296,
      "?âĢĿ": 2297,
      "ment": 2298,
      "äº¬": 2299,
      "å¦": 2300,
      "çĻ¼": 2301,
      "Ġnoises": 2302,
      "Ġalong": 2303,
      "åħĭ": 2304,
      "å¤ļ": 2305,
      "æĢ»": 2306,
      "Ġpiece": 2307,
      "Lila": 2308,
      "Ġexplained": 2309,
      "cy": 2310,
      "çģ": 2311,
      "oun": 2312,
      "Ġcorn": 2313,
      "Ġsea": 2314,
      "èª": 2315,
      "Ġpast": 2316,
      "Ġhugs": 2317,
      "Ġsinging": 2318,
      "Ġadventures": 2319,
      "Ġupset": 2320,
      "12": 2321,
      "ead": 2322,
      "Ġshoes": 2323,
      "Ġbucket": 2324,
      "ä¸ŃåĽ½åħ±äº§": 2325,
      "æĶ¿å§Ķ": 2326,
      "åıĤåĬł": 2327,
      "Ġstories": 2328,
      "ek": 2329,
      "Ġsang": 2330,
      "Ġmat": 2331,
      "Ġwhe": 2332,
      "åħ«ä¸Ģ": 2333,
      "çĲĨ": 2334,
      "phant": 2335,
      "Ġyoung": 2336,
      "Ġbring": 2337,
      "Ġturns": 2338,
      "åı¯": 2339,
      "Ġsecret": 2340,
      "ible": 2341,
      "itting": 2342,
      "Ġdist": 2343,
      "Ġwell": 2344,
      "éĲ": 2345,
      "Ġneck": 2346,
      "æĵ": 2347,
      "åı£": 2348,
      "æķĻ": 2349,
      "Ġinst": 2350,
      "ç¬¬ä¸Ģ": 2351,
      "Ġplac": 2352,
      "Ġswam": 2353,
      "Ġmoved": 2354,
      "ĠGrandma": 2355,
      "ches": 2356,
      "ountain": 2357,
      "ces": 2358,
      "Ġlate": 2359,
      "Ġben": 2360,
      "ĠMary": 2361,
      "èĢĮ": 2362,
      "Ġrocks": 2363,
      "Ġstars": 2364,
      "ward": 2365,
      "Ġsoup": 2366,
      "Ġtrou": 2367,
      "Ġelephant": 2368,
      "Ġtaking": 2369,
      "Ġjar": 2370,
      "Ġapple": 2371,
      "Ġshop": 2372,
      "Ġwish": 2373,
      "Ġexploring": 2374,
      "Ġmiss": 2375,
      "yard": 2376,
      "Ġdropped": 2377,
      "Ġcaught": 2378,
      "ush": 2379,
      "éł": 2380,
      "Ġph": 2381,
      "Ġbackyard": 2382,
      "fused": 2383,
      "Ġlunch": 2384,
      "Ġshook": 2385,
      "è²": 2386,
      "ç¸£": 2387,
      "Ġdrink": 2388,
      "Ġstreet": 2389,
      "ocked": 2390,
      "Ġexp": 2391,
      "ĠEmma": 2392,
      "Ġnaught": 2393,
      "Ġjuice": 2394,
      "Ġbelong": 2395,
      "Ġowl": 2396,
      "Ġnaughty": 2397,
      "Ġseemed": 2398,
      "ub": 2399,
      "åįİ": 2400,
      "Ġstar": 2401,
      "11": 2402,
      "Ġshap": 2403,
      "llo": 2404,
      "ç©": 2405,
      "æ²³": 2406,
      "Ġve": 2407,
      "Ġorange": 2408,
      "Ġkey": 2409,
      "ions": 2410,
      "col": 2411,
      "bow": 2412,
      "bby": 2413,
      "Ġtiny": 2414,
      "Ġwise": 2415,
      "æı": 2416,
      "éĦ": 2417,
      "ĠO": 2418,
      "éĥ½": 2419,
      "Ġnearby": 2420,
      "Ġrelie": 2421,
      "ung": 2422,
      "Ġdes": 2423,
      "cing": 2424,
      "Ġyear": 2425,
      "ç¤": 2426,
      "åıĥ": 2427,
      "Ġcou": 2428,
      "ity": 2429,
      "Ġtom": 2430,
      "Ġes": 2431,
      "Ġwoke": 2432,
      "Ġbusy": 2433,
      "æĶ¯": 2434,
      "äºĮçº§çĭ¬ç«ĭèĩªçĶ±": 2435,
      "Ġca": 2436,
      "Ġmail": 2437,
      "And": 2438,
      "ail": 2439,
      "åıĳ": 2440,
      "Do": 2441,
      "Ġthough": 2442,
      "Ġpurp": 2443,
      "aughter": 2444,
      "sy": 2445,
      "åº¦": 2446,
      "Ġfarm": 2447,
      "æĭī": 2448,
      "ä¸Ģçº§è§£æĶ¾åĭĭç«łèİ·å¾ĹèĢħ": 2449,
      "ts": 2450,
      "è°ĭ": 2451,
      "Ġinv": 2452,
      "ĠThank": 2453,
      "ä¸ŃåĽ½åħ±äº§åħļ": 2454,
      "Ġpig": 2455,
      "adow": 2456,
      "ining": 2457,
      "æĸĻ": 2458,
      "Ġshapes": 2459,
      "Ġaf": 2460,
      "pper": 2461,
      "Ġstu": 2462,
      "Ġforever": 2463,
      "Ġhuge": 2464,
      "æ¥": 2465,
      "åıĤè°ĭ": 2466,
      "éĸĭ": 2467,
      "Ġsick": 2468,
      "Ġtakes": 2469,
      "Ġrainbow": 2470,
      "Ġwondered": 2471,
      "cer": 2472,
      "Ġob": 2473,
      "ĠFluffy": 2474,
      "åĶ": 2475,
      "Ġcarry": 2476,
      "Ġarms": 2477,
      "ese": 2478,
      "ĠInside": 2479,
      "æ©": 2480,
      "åĲĪ": 2481,
      "å®ĺ": 2482,
      "Ġkite": 2483,
      "Ġmine": 2484,
      "åĮĸ": 2485,
      "ä¹Ŀ": 2486,
      "æīĢ": 2487,
      "è¦ģ": 2488,
      "Ġcow": 2489,
      "Ġpurple": 2490,
      "Ġresp": 2491,
      "Ġmark": 2492,
      "Ġnose": 2493,
      "åĪ©": 2494,
      "Ġround": 2495,
      "Ġdaughter": 2496,
      "15": 2497,
      "ose": 2498,
      "Ġnest": 2499,
      "idge": 2500,
      "æ°´": 2501,
      "Ġcir": 2502,
      "to": 2503,
      "Ġboun": 2504,
      "Ġsounds": 2505,
      "Ġbranch": 2506,
      "fish": 2507,
      "ours": 2508,
      "vered": 2509,
      "åĭķ": 2510,
      "Ġsitting": 2511,
      "ittens": 2512,
      "Ġwhist": 2513,
      "Ġpeace": 2514,
      "æŀĹ": 2515,
      "Ġcomes": 2516,
      "åı²": 2517,
      "æĶ¹": 2518,
      "å·´": 2519,
      "Ġfit": 2520,
      "Ġnothing": 2521,
      "Ġdriver": 2522,
      "Ġcreature": 2523,
      "æº": 2524,
      "Ġmad": 2525,
      "og": 2526,
      "board": 2527,
      "thday": 2528,
      "Ġrelieved": 2529,
      "æĿİ": 2530,
      "Ġswimming": 2531,
      "Ġbench": 2532,
      "ĠFinally": 2533,
      "uched": 2534,
      "Ġtouched": 2535,
      "gg": 2536,
      "raid": 2537,
      "åķ": 2538,
      "Ġafraid": 2539,
      "Ġmil": 2540,
      "Ġexciting": 2541,
      "Ġpatient": 2542,
      "Ġlift": 2543,
      "Ġletter": 2544,
      "Ġhello": 2545,
      "shine": 2546,
      "Ġlife": 2547,
      "Ġspoon": 2548,
      "Ġcute": 2549,
      "æŃ£": 2550,
      "Ġholding": 2551,
      "Ġcollect": 2552,
      "Ġshell": 2553,
      "èĤ": 2554,
      "éĲµ": 2555,
      "Ġret": 2556,
      "Ġcoat": 2557,
      "Ġking": 2558,
      "Ġwra": 2559,
      "ç¼": 2560,
      "å¯Ł": 2561,
      "å¥³": 2562,
      "sting": 2563,
      "æģ": 2564,
      "æ¼Ķ": 2565,
      "weet": 2566,
      "Ġpromise": 2567,
      "çĦ": 2568,
      "åħ«ä¸Ģåĭĭç«łèİ·å¾ĹèĢħ": 2569,
      "Ġsunshine": 2570,
      "Ġlaughing": 2571,
      "åĳ½": 2572,
      "åĬĽ": 2573,
      "ĠSoon": 2574,
      "itch": 2575,
      "Ġreturn": 2576,
      "ä¸İ": 2577,
      "Ġintere": 2578,
      "èµ·": 2579,
      "Ġaccidentally": 2580,
      "Ġdisco": 2581,
      "åħ¼": 2582,
      "let": 2583,
      "Ġgrab": 2584,
      "åī¯åı¸ä»¤åĳĺ": 2585,
      "æĮĩ": 2586,
      "Ġband": 2587,
      "Ġonto": 2588,
      "Ġjourney": 2589,
      "Ġcheese": 2590,
      "å±Ģ": 2591,
      "éĸĵ": 2592,
      "Ġdays": 2593,
      "Ġbirthday": 2594,
      "Ġcave": 2595,
      "Ġfing": 2596,
      "eth": 2597,
      "çį": 2598,
      "Ġmist": 2599,
      "æĶ¿æ²»å§Ķåĳĺ": 2600,
      "ä¿Ŀ": 2601,
      "Ġpower": 2602,
      "Ġspin": 2603,
      "Of": 2604,
      "åı·": 2605,
      "Ġcomfort": 2606,
      "ĠSammy": 2607,
      "Ġhor": 2608,
      "éĺ³": 2609,
      "åŁİ": 2610,
      "Ġgigg": 2611,
      "Ġcozy": 2612,
      "ness": 2613,
      "ped": 2614,
      "Ġsunny": 2615,
      "ten": 2616,
      "ize": 2617,
      "Ġact": 2618,
      "ĠCome": 2619,
      "ĠMama": 2620,
      "Ġfan": 2621,
      "irt": 2622,
      "Ġinc": 2623,
      "Ġear": 2624,
      "éĢ²": 2625,
      "çŁ¥": 2626,
      "Ġlucky": 2627,
      "Hey": 2628,
      "Ġhope": 2629,
      "Ġgather": 2630,
      "Ġperson": 2631,
      "é£": 2632,
      "é©": 2633,
      "å¸ĥ": 2634,
      "Ġgives": 2635,
      "Ġsmiling": 2636,
      "å°ı": 2637,
      "äºĮçº§çĭ¬ç«ĭèĩªçĶ±åĭĭç«łèİ·å¾ĹèĢħ": 2638,
      "ball": 2639,
      "è¼": 2640,
      "Ġpudd": 2641,
      "çĽ¸": 2642,
      "åł´": 2643,
      "Ġinstead": 2644,
      "Ġsearched": 2645,
      "èį": 2646,
      "åħī": 2647,
      "åıĤè°ĭéķ¿": 2648,
      "Ġmilk": 2649,
      "Ġhoney": 2650,
      "Ġbread": 2651,
      "Ġpres": 2652,
      "Later": 2653,
      "éŁ³": 2654,
      "round": 2655,
      "Ġpointed": 2656,
      "Bob": 2657,
      "Ġkick": 2658,
      "æľĢ": 2659,
      "Ġeas": 2660,
      "Ġent": 2661,
      "alm": 2662,
      "Ġbought": 2663,
      "Ġanyone": 2664,
      "éĩį": 2665,
      "itten": 2666,
      "Ġimag": 2667,
      "Ġsuc": 2668,
      "Ġce": 2669,
      "Tommy": 2670,
      "è¿Ľ": 2671,
      "éĽĨ": 2672,
      "ç±³": 2673,
      "gged": 2674,
      "Ġbottle": 2675,
      "Ġrope": 2676,
      "Ġputs": 2677,
      "els": 2678,
      "arp": 2679,
      "Ġsu": 2680,
      "ond": 2681,
      "pa": 2682,
      "Ġtasty": 2683,
      "ä¹¦": 2684,
      "æĶ¿æ²»éĥ¨": 2685,
      "Ġspo": 2686,
      "Ġwatching": 2687,
      "Ġbush": 2688,
      "Ġhealthy": 2689,
      "ove": 2690,
      "Ġlater": 2691,
      "200": 2692,
      "è»į": 2693,
      "æ¹ĸ": 2694,
      "oman": 2695,
      "Ġtalked": 2696,
      "Ġplane": 2697,
      "Ġroad": 2698,
      "Ġbutton": 2699,
      "æĥ": 2700,
      "Ġwoman": 2701,
      "unt": 2702,
      "èĪ°": 2703,
      "Ġsharp": 2704,
      "Ġshining": 2705,
      "blem": 2706,
      "Ġadm": 2707,
      "Ġwide": 2708,
      "Ġproblem": 2709,
      "æ½Ł": 2710,
      "Ġclouds": 2711,
      "Ġtrouble": 2712,
      "Ġstorm": 2713,
      "Ġzoom": 2714,
      "Ġmeet": 2715,
      "Ġpresent": 2716,
      "èĬ": 2717,
      "äº¤": 2718,
      "åħĥ": 2719,
      "Ġkiss": 2720,
      "ont": 2721,
      "Ġzoo": 2722,
      "Ġsandw": 2723,
      "å®ļ": 2724,
      "Ġinteresting": 2725,
      "åħ§": 2726,
      "åĨĽç¬¬": 2727,
      "æĸ°æ½Ł": 2728,
      "Ġsmelled": 2729,
      "éħ": 2730,
      "Ġpract": 2731,
      "åĪĹ": 2732,
      "epend": 2733,
      "éĵ": 2734,
      "ä¹Ł": 2735,
      "Ġapples": 2736,
      "Ġpile": 2737,
      "Ġclever": 2738,
      "owed": 2739,
      "Ġspid": 2740,
      "Ġquest": 2741,
      "Ġpar": 2742,
      "æ°ı": 2743,
      "Ġloves": 2744,
      "Ġres": 2745,
      "Good": 2746,
      "æ¢": 2747,
      "Ġmatter": 2748,
      "ĠWith": 2749,
      "ç®": 2750,
      "ĠCh": 2751,
      "Ġcrayons": 2752,
      "åĸ": 2753,
      "ç³": 2754,
      "Ġmach": 2755,
      "Ġhorse": 2756,
      "Ġvill": 2757,
      "Ġpop": 2758,
      "Ġsaf": 2759,
      "æĬĹ": 2760,
      "Ġsur": 2761,
      "Ġhon": 2762,
      "eb": 2763,
      "å½±": 2764,
      "amed": 2765,
      "erly": 2766,
      "Ġmyster": 2767,
      "Ġorgan": 2768,
      "een": 2769,
      "Lucy": 2770,
      "aur": 2771,
      "Ġappeared": 2772,
      "cks": 2773,
      "Ġeag": 2774,
      "Ġneighbor": 2775,
      "æİ¥": 2776,
      "Ġap": 2777,
      "Ġwhich": 2778,
      "Ġducks": 2779,
      "Ġlovely": 2780,
      "Ġwild": 2781,
      "Ġprot": 2782,
      "Ġdanced": 2783,
      "Ġsnowman": 2784,
      "Ġspotted": 2785,
      "Ġwhole": 2786,
      "Ġfront": 2787,
      "æ»": 2788,
      "Ġcheer": 2789,
      "Ġgiant": 2790,
      "Ġanswer": 2791,
      "ĠJimmy": 2792,
      "ale": 2793,
      "Ġcard": 2794,
      "isa": 2795,
      "ï¼īãĢĤ": 2796,
      "lla": 2797,
      "Ġfeather": 2798,
      "ching": 2799,
      "åĬ¨": 2800,
      "ä»£è¡¨": 2801,
      "ometimes": 2802,
      "oose": 2803,
      "Ġprotect": 2804,
      "Ġseat": 2805,
      "Ġpill": 2806,
      "ç¦ı": 2807,
      "St": 2808,
      "Ġoce": 2809,
      "Ġrolled": 2810,
      "ĠTweet": 2811,
      "ular": 2812,
      "Ġplaces": 2813,
      "Ġgrand": 2814,
      "Ġminut": 2815,
      "Ġwearing": 2816,
      "åĽŀ": 2817,
      "Ġtasted": 2818,
      "èŃ¦": 2819,
      "Ġocean": 2820,
      "Ġtrip": 2821,
      "Molly": 2822,
      "Ġlay": 2823,
      "Ġdi": 2824,
      "Ġpath": 2825,
      "Ġgoes": 2826,
      "Ġasleep": 2827,
      "Ġpuzz": 2828,
      "Ġmed": 2829,
      "Every": 2830,
      "Ġscreamed": 2831,
      "Jim": 2832,
      "Ġshr": 2833,
      "å¢": 2834,
      "Ġbark": 2835,
      "å¹¶": 2836,
      "åĪĨåĮº": 2837,
      "ert": 2838,
      "Just": 2839,
      "Ġimpre": 2840,
      "æ¸ħ": 2841,
      "la": 2842,
      "Ġrespect": 2843,
      "Ġmud": 2844,
      "Ġval": 2845,
      "éľ": 2846,
      "éĥİ": 2847,
      "Ġcorner": 2848,
      "Come": 2849,
      "Ġgently": 2850,
      "ä½Ĩ": 2851,
      "Ġslid": 2852,
      "izz": 2853,
      "Ġsnake": 2854,
      "Ġtun": 2855,
      "ĠGo": 2856,
      "ones": 2857,
      "nic": 2858,
      "é¾": 2859,
      "ç¥ĸ": 2860,
      "Ġspent": 2861,
      "Ġmind": 2862,
      "Ġsplas": 2863,
      "Mum": 2864,
      "Ġteach": 2865,
      "ĠHow": 2866,
      "èĳ": 2867,
      "åĨħ": 2868,
      "å¸¸": 2869,
      "å§ĭ": 2870,
      "çĪ¾": 2871,
      "Ġthin": 2872,
      "Ġtries": 2873,
      "Ġpicnic": 2874,
      "Ġconfused": 2875,
      "In": 2876,
      "ĠMittens": 2877,
      "éĩİ": 2878,
      "çĶŁå¹³": 2879,
      "Ġdirt": 2880,
      "Ġphone": 2881,
      "bar": 2882,
      "Ġser": 2883,
      "å¡": 2884,
      "éĩĳ": 2885,
      "ç³»": 2886,
      "Ġsupp": 2887,
      "æ¥Ń": 2888,
      "Ġpass": 2889,
      "Ġbuilding": 2890,
      "Ġsack": 2891,
      "ç»Ħ": 2892,
      "Ġpan": 2893,
      "Ġoven": 2894,
      "Ġsal": 2895,
      "æħ": 2896,
      "Ġfaces": 2897,
      "åĲĳ": 2898,
      "çĽ´": 2899,
      "æ©Ł": 2900,
      "ĠSt": 2901,
      "Ġcouch": 2902,
      "Ġfeet": 2903,
      "éĽ»": 2904,
      "Ġlad": 2905,
      "Ġcoin": 2906,
      "ç¶ĵ": 2907,
      "Ġwrite": 2908,
      "arge": 2909,
      "Ġfurry": 2910,
      "å¨": 2911,
      "èĹ": 2912,
      "å¹¿": 2913,
      "198": 2914,
      "read": 2915,
      "Ġlive": 2916,
      "Ġign": 2917,
      "Ġrec": 2918,
      "çĳ": 2919,
      "å¿Ĺ": 2920,
      "Ġlast": 2921,
      "Ġdelight": 2922,
      "Ġforgive": 2923,
      "Ġmountain": 2924,
      "unk": 2925,
      "Ġchick": 2926,
      "Ġpour": 2927,
      "æ®": 2928,
      "å¤Ħ": 2929,
      "Ġremind": 2930,
      "æŁ": 2931,
      "é¦ĸ": 2932,
      "ç¨ĭ": 2933,
      "ĠEmily": 2934,
      "Ġant": 2935,
      "umber": 2936,
      "Ġdrive": 2937,
      "ä¸¦": 2938,
      "Ġhelpful": 2939,
      "å½¹": 2940,
      "çĲĥ": 2941,
      "Ġembar": 2942,
      "Ġfoot": 2943,
      "Ġspread": 2944,
      "Ġteeth": 2945,
      "Ġeventually": 2946,
      "Ġembarra": 2947,
      "åĤ": 2948,
      "ato": 2949,
      "å¤®": 2950,
      "Ġspider": 2951,
      "hile": 2952,
      "mo": 2953,
      "itty": 2954,
      "Ġash": 2955,
      "Ġpretended": 2956,
      "Ġmachine": 2957,
      "als": 2958,
      "Ġblew": 2959,
      "Ġcalm": 2960,
      "Ġring": 2961,
      "Ġrude": 2962,
      "Ġsmooth": 2963,
      "Ġladder": 2964,
      "Ġcart": 2965,
      "Ġtalking": 2966,
      "Ġwave": 2967,
      "åİĨ": 2968,
      "ä¾Ĩ": 2969,
      "äºĮçº§åħ«ä¸Ģåĭĭç«łèİ·å¾ĹèĢħ": 2970,
      "Ġpaw": 2971,
      "Ġwhenever": 2972,
      "Ġcookie": 2973,
      "Ġpush": 2974,
      "Soon": 2975,
      "Ġwaiting": 2976,
      "Ġtid": 2977,
      "Ġban": 2978,
      "Ġtomorrow": 2979,
      "bbles": 2980,
      "Ġbell": 2981,
      "lex": 2982,
      "è³½": 2983,
      "Ġcann": 2984,
      "ĠZ": 2985,
      "èı": 2986,
      "ä¸Ńå¤®": 2987,
      "åįģä¸Ģ": 2988,
      "Ġtool": 2989,
      "ĠJust": 2990,
      "ator": 2991,
      "æīĭ": 2992,
      "Ġhiding": 2993,
      "Ġbugs": 2994,
      "Ġfinish": 2995,
      "Ġworm": 2996,
      "Ġchocol": 2997,
      "Ġwip": 2998,
      "æ£": 2999,
      "æĴ": 3000,
      "åį¡": 3001,
      "åŃĹ": 3002,
      "æ¸¯": 3003,
      "Ġcannot": 3004,
      "oph": 3005,
      "Ġcolour": 3006,
      "ife": 3007,
      "Ġpool": 3008,
      "Ġspray": 3009,
      "Ġlarge": 3010,
      "Ġgen": 3011,
      "aul": 3012,
      "èµĦ": 3013,
      "lebr": 3014,
      "ĠEverywhere": 3015,
      "åĢĭ": 3016,
      "Ġcelebr": 3017,
      "Ġshy": 3018,
      "Ġcross": 3019,
      "Ġsel": 3020,
      "14": 3021,
      "ĠSometimes": 3022,
      "ç¬¬ä¸ī": 3023,
      "ian": 3024,
      "Ġvillage": 3025,
      "Ġfixed": 3026,
      "Ġpuddle": 3027,
      "Ġcoo": 3028,
      "ĠAl": 3029,
      "ighed": 3030,
      "åĺ": 3031,
      "èº": 3032,
      "Ġstret": 3033,
      "hnn": 3034,
      "Ġfighting": 3035,
      "Ġbat": 3036,
      "éĥ¨éķ¿": 3037,
      "è¨Ńæľī": 3038,
      "box": 3039,
      "Ġstir": 3040,
      "urse": 3041,
      "Ġchased": 3042,
      "å¤ª": 3043,
      "èĪī": 3044,
      "Ġrob": 3045,
      "Ġwore": 3046,
      "old": 3047,
      "Ġknee": 3048,
      "ĠJake": 3049,
      "åĳ¨": 3050,
      "Ġfold": 3051,
      "iger": 3052,
      "åĭĻ": 3053,
      "ç»ı": 3054,
      "èĥ½": 3055,
      "èĭ±": 3056,
      "Ġsol": 3057,
      "Ġhum": 3058,
      "Ġspe": 3059,
      "Ġsongs": 3060,
      "Ġembarrassed": 3061,
      "Ġtaste": 3062,
      "ult": 3063,
      "hnny": 3064,
      "Ġcarrots": 3065,
      "Ġbarked": 3066,
      "Ġpeaceful": 3067,
      "Ġleaf": 3068,
      "Ġshirt": 3069,
      "Ġtreats": 3070,
      "Ġcloth": 3071,
      "Ġforward": 3072,
      "Ġrocket": 3073,
      "ĠJenny": 3074,
      "æĽ²": 3075,
      "æĽ¸": 3076,
      "çĪ¶": 3077,
      "ĠOn": 3078,
      "Ġnet": 3079,
      "Ġbanan": 3080,
      "Ġplate": 3081,
      "Ġwhistle": 3082,
      "Ġstra": 3083,
      "192": 3084,
      "arm": 3085,
      "Ġemp": 3086,
      "Ġple": 3087,
      "ungle": 3088,
      "inted": 3089,
      "ĠLe": 3090,
      "Ġtidy": 3091,
      "Ġempty": 3092,
      "getable": 3093,
      "Ġmoon": 3094,
      "My": 3095,
      "è±": 3096,
      "åĲī": 3097,
      "Ġselfish": 3098,
      "16": 3099,
      "Ġjungle": 3100,
      "Ġvegetable": 3101,
      "èĺ": 3102,
      "Ġchocolate": 3103,
      "Ġspicy": 3104,
      "Ġneckl": 3105,
      "èĲ¥": 3106,
      "è¶Ĭ": 3107,
      "Ġdeter": 3108,
      "Ġcreative": 3109,
      "Ġknocked": 3110,
      "Ġgrew": 3111,
      "Ġsave": 3112,
      "è©¦": 3113,
      "èº«": 3114,
      "Ġmaybe": 3115,
      "Ġwash": 3116,
      "elly": 3117,
      "Ġrep": 3118,
      "airs": 3119,
      "Ġdeterm": 3120,
      "å°į": 3121,
      "åŁº": 3122,
      "Ġtightly": 3123,
      "Dad": 3124,
      "Please": 3125,
      "umpy": 3126,
      "Ġ'": 3127,
      "Ġstep": 3128,
      "æĶ¿åºľ": 3129,
      "éĺ¿": 3130,
      "çµĲ": 3131,
      "Ġstring": 3132,
      "Ġrobot": 3133,
      "Ġtrust": 3134,
      "Ġdisappo": 3135,
      "Ġjumping": 3136,
      "Ġhears": 3137,
      "ĠPlease": 3138,
      "Ġcrab": 3139,
      "most": 3140,
      "ground": 3141,
      "Ġtea": 3142,
      "ina": 3143,
      "æ·": 3144,
      "Ġtells": 3145,
      "Ġdecor": 3146,
      "Mama": 3147,
      "Ġmissed": 3148,
      "Ġalmost": 3149,
      "Ġsparkly": 3150,
      "Ġlegs": 3151,
      "Now": 3152,
      "Ġstone": 3153,
      "åĪ¶": 3154,
      "Ġhonest": 3155,
      "Ġkitten": 3156,
      "ustr": 3157,
      "den": 3158,
      "æį": 3159,
      "çĶ²": 3160,
      "ä¹ī": 3161,
      "dle": 3162,
      "aking": 3163,
      "ying": 3164,
      "Ġshelf": 3165,
      "æľ¯": 3166,
      "åħ±åĴĮ": 3167,
      "é»Ħ": 3168,
      "åĺī": 3169,
      "00": 3170,
      "Ġmeant": 3171,
      "erry": 3172,
      "Ġgener": 3173,
      "dge": 3174,
      "Ġmeadow": 3175,
      "Ġbal": 3176,
      "Ġsheep": 3177,
      "çĩ": 3178,
      "æĽ¾ä»»ä¸ŃåĽ½äººæ°ĳè§£æĶ¾åĨĽ": 3179,
      "ĠLisa": 3180,
      "Ġbreath": 3181,
      "Ġsplash": 3182,
      "To": 3183,
      "Ġnut": 3184,
      "Ġlanded": 3185,
      "Ġgray": 3186,
      "çł": 3187,
      "åį«": 3188,
      "äººçī©": 3189,
      "199": 3190,
      "Ġscre": 3191,
      "Ġscar": 3192,
      "Ġsour": 3193,
      "ird": 3194,
      "Ġcarried": 3195,
      "Ġdisappointed": 3196,
      "ĠSome": 3197,
      "ĠTheir": 3198,
      "ork": 3199,
      "ony": 3200,
      "Ġpizz": 3201,
      "Ġlem": 3202,
      "Ġhel": 3203,
      "Ġshore": 3204,
      "æ¶": 3205,
      "è«": 3206,
      "åĨĽéķ¿": 3207,
      "çĽ®": 3208,
      "Ġsharing": 3209,
      "ned": 3210,
      "Ġstood": 3211,
      "Ġvan": 3212,
      "Ġgroup": 3213,
      "orry": 3214,
      "erv": 3215,
      "å¯¼": 3216,
      "èī²": 3217,
      "ĠMum": 3218,
      "Ġfear": 3219,
      "Ġnecklace": 3220,
      "Ġwhis": 3221,
      "fl": 3222,
      "Ġsticks": 3223,
      "Ġhours": 3224,
      "kin": 3225,
      "Ġsnacks": 3226,
      "ital": 3227,
      "hin": 3228,
      "Ġreturned": 3229,
      "çĮ": 3230,
      "äºŀ": 3231,
      "å¤«": 3232,
      "196": 3233,
      "åĬĩ": 3234,
      "çĻ½": 3235,
      "Ġsuccess": 3236,
      "'d": 3237,
      "Ġtick": 3238,
      "å¤§åŃ¦": 3239,
      "Ġfrustr": 3240,
      "ĠTV": 3241,
      "Ġseed": 3242,
      "Ġhidden": 3243,
      "Be": 3244,
      "Ġprince": 3245,
      "Ġav": 3246,
      "ĠAnn": 3247,
      "Ġjew": 3248,
      "éĺ²": 3249,
      "æĿĳ": 3250,
      "èģ¯": 3251,
      "éĹľ": 3252,
      "Ġug": 3253,
      "Ġsleepy": 3254,
      "ano": 3255,
      "ĠEven": 3256,
      "Ġyelled": 3257,
      "Ġline": 3258,
      "éķĩ": 3259,
      "å¼ł": 3260,
      "åħļåĳĺ": 3261,
      "Ġpay": 3262,
      "itter": 3263,
      "Ġunderstood": 3264,
      "Ġpillow": 3265,
      "Ġplants": 3266,
      "Ġtest": 3267,
      "ĠĊĠĊ": 3268,
      "éĿĴ": 3269,
      "éĹ´": 3270,
      "Ġknowing": 3271,
      "Ġstanding": 3272,
      "spital": 3273,
      "Ġugly": 3274,
      "ual": 3275,
      "Ġclass": 3276,
      "Ġdrew": 3277,
      "Ġvase": 3278,
      "Ġpizza": 3279,
      "åŀ": 3280,
      "ç¹": 3281,
      "çĸ": 3282,
      "Ġgun": 3283,
      "æĪ°": 3284,
      "Sarah": 3285,
      "Ġhospital": 3286,
      "Ġashamed": 3287,
      "erp": 3288,
      "Ġgold": 3289,
      "ĠTeddy": 3290,
      "Ġdetermined": 3291,
      "Ġbedroom": 3292,
      "era": 3293,
      "äºī": 3294,
      "åĨľ": 3295,
      "197": 3296,
      "éĩı": 3297,
      "çľģåĨĽåĮº": 3298,
      "Ġnods": 3299,
      "Ġpri": 3300,
      "Ġthankful": 3301,
      "ĠWhy": 3302,
      "usie": 3303,
      "17": 3304,
      "ãĥ": 3305,
      "ä¸ļ": 3306,
      "éĢ£": 3307,
      "èĻŁ": 3308,
      "ĠBe": 3309,
      "Ġthese": 3310,
      "ĠDon": 3311,
      "ĠTogether": 3312,
      "Ġmysterious": 3313,
      "iff": 3314,
      "Ġfrustrated": 3315,
      "å·Ŀ": 3316,
      "Ġpoor": 3317,
      "Ġwhisp": 3318,
      "Ġmessy": 3319,
      "Jane": 3320,
      "Ġgas": 3321,
      "Ġcirc": 3322,
      "éª": 3323,
      "æĺŁ": 3324,
      "åĩ»": 3325,
      "æ¨Ĥ": 3326,
      "Ġtwirl": 3327,
      "Ġpin": 3328,
      "Ġpuzzle": 3329,
      "Ġjelly": 3330,
      "Stop": 3331,
      "Ġeasy": 3332,
      "Ġdeer": 3333,
      "There": 3334,
      "Ġexcite": 3335,
      "Ġgenerous": 3336,
      "Ġblow": 3337,
      "Ġburn": 3338,
      "Ġpir": 3339,
      "ä»İ": 3340,
      "Ġseek": 3341,
      "Ġtaught": 3342,
      "çº¢åĨĽ": 3343,
      "èĭı": 3344,
      "Ġbored": 3345,
      "llie": 3346,
      "Ġpolice": 3347,
      "Ġpowerful": 3348,
      "obby": 3349,
      "Ġhur": 3350,
      "å®¢": 3351,
      "æĭħ": 3352,
      "Ġgathered": 3353,
      "Ġcries": 3354,
      "Ġmummy": 3355,
      "arl": 3356,
      "oop": 3357,
      "çĥ": 3358,
      "Ġreg": 3359,
      "å±Ĭ": 3360,
      "æł¼": 3361,
      "æĢ§": 3362,
      "ç®¡": 3363,
      "Ġdancing": 3364,
      "Ġwaves": 3365,
      "ervous": 3366,
      "Ġnervous": 3367,
      "Ġoften": 3368,
      "åįı": 3369,
      "ä¸Ńåįİ": 3370,
      "è¿ŀ": 3371,
      "è¯¥": 3372,
      "work": 3373,
      "Ġlit": 3374,
      "ote": 3375,
      "Ġsold": 3376,
      "ĠRex": 3377,
      "Ġsighed": 3378,
      "åı¤": 3379,
      "ä¹¡": 3380,
      "åº§": 3381,
      "éĿ©": 3382,
      "ä½¿çĶ¨": 3383,
      "ĠPeter": 3384,
      "Ġmot": 3385,
      "Ġgate": 3386,
      "Ġfancy": 3387,
      "Ġminutes": 3388,
      "Ġrad": 3389,
      "Ġspoil": 3390,
      "Ġfig": 3391,
      "Ġwolf": 3392,
      "Ġexcitement": 3393,
      "assed": 3394,
      "çĿ": 3395,
      "éŃ": 3396,
      "è®°": 3397,
      "æ´²": 3398,
      "çµĦ": 3399,
      "é¦Ļ": 3400,
      "ä¸ŃåĽ½åħ±äº§åħļåħļåĳĺ": 3401,
      "Ġpassed": 3402,
      "Ġglass": 3403,
      "Ġsandwich": 3404,
      "Ġflag": 3405,
      "ets": 3406,
      "åĥ": 3407,
      "ç¿": 3408,
      "éĴ": 3409,
      "åĬ¡": 3410,
      "éĻĨ": 3411,
      "æ¯į": 3412,
      "iddle": 3413,
      "ensive": 3414,
      "pack": 3415,
      "Ġanswered": 3416,
      "åĪĿ": 3417,
      "çºµ": 3418,
      "å±ŀ": 3419,
      "åĬłåħ¥": 3420,
      "Ġpolite": 3421,
      "Ġship": 3422,
      "Ġbridge": 3423,
      "Ġexpensive": 3424,
      "Ġflut": 3425,
      "ates": 3426,
      "åĨĽåĪĨåĮº": 3427,
      "ä¸Ńåħ±": 3428,
      "çķĮ": 3429,
      "èµĦæĸĻ": 3430,
      "Ġtent": 3431,
      "Ġyourself": 3432,
      "Ġcomfortable": 3433,
      "izzy": 3434,
      "af": 3435,
      "Ġhang": 3436,
      "uce": 3437,
      "Ġfil": 3438,
      "å¹´åħ¥": 3439,
      "æĿ¥": 3440,
      "æ¸¸": 3441,
      "Where": 3442,
      "Ġsaved": 3443,
      "Ġchew": 3444,
      "Ġmedic": 3445,
      "oof": 3446,
      "Ġkissed": 3447,
      "Ġscarf": 3448,
      "Ġweek": 3449,
      "çĶ°": 3450,
      "è¿Ĳ": 3451,
      "ç¼ĸ": 3452,
      "Ġfeed": 3453,
      "Ġcaterp": 3454,
      "Ġcaterpill": 3455,
      "mb": 3456,
      "Ġboring": 3457,
      "Ġfinger": 3458,
      "Ġwander": 3459,
      "Ġesc": 3460,
      "Ġscr": 3461,
      "Ġgrumpy": 3462,
      "iness": 3463,
      "åıį": 3464,
      "å¯º": 3465,
      "æĪĲç«ĭ": 3466,
      "selves": 3467,
      "que": 3468,
      "Ġmedicine": 3469,
      "Ġtears": 3470,
      "é½": 3471,
      "äºļ": 3472,
      "ä½ĵ": 3473,
      "åıĤèĢĥèµĦæĸĻ": 3474,
      "osaur": 3475,
      "Ġpacked": 3476,
      "Ġlock": 3477,
      "Ġcloset": 3478,
      "illed": 3479,
      "Ġvegetables": 3480,
      "Ġchest": 3481,
      "Ġgets": 3482,
      "Ġtaken": 3483,
      "åĮ»": 3484,
      "äººæ°ĳåħ±åĴĮ": 3485,
      "æŃĮ": 3486,
      "æĪĺå½¹": 3487,
      "èģĶ": 3488,
      "ç¾ħ": 3489,
      "Ġknight": 3490,
      "Ġworking": 3491,
      "Ġleg": 3492,
      "aser": 3493,
      "Ġhopping": 3494,
      "light": 3495,
      "Ġcrawl": 3496,
      "ĠBr": 3497,
      "äºĮåįģ": 3498,
      "Ġdrum": 3499,
      "Ġmiddle": 3500,
      "Ġpleased": 3501,
      "Ġtrue": 3502,
      "Ġspend": 3503,
      "ĠJohnny": 3504,
      "Ġdest": 3505,
      "è§Ģ": 3506,
      "èģĮ": 3507,
      "éĤĬ": 3508,
      "Ġdrop": 3509,
      "Ġwheel": 3510,
      "ĠOK": 3511,
      "Ġboss": 3512,
      "çļĦä¸Ģ": 3513,
      "æĦı": 3514,
      "Ġcand": 3515,
      "Ġmistake": 3516,
      "Sp": 3517,
      "Ġlazy": 3518,
      "issors": 3519,
      "Sorry": 3520,
      "ggs": 3521,
      "Ġweak": 3522,
      "Ġeggs": 3523,
      "ecially": 3524,
      "Ġbone": 3525,
      "ç¬¬åĽĽ": 3526,
      "ç¬¬äºĶ": 3527,
      "å¿ĥ": 3528,
      "èĺŃ": 3529,
      "æĭħä»»": 3530,
      "Ġcaterpillar": 3531,
      "Ġcrown": 3532,
      "Ġdinosaur": 3533,
      "Ġstuff": 3534,
      "Ġscissors": 3535,
      "ushed": 3536,
      "Ġpicks": 3537,
      "ĠU": 3538,
      "Are": 3539,
      "åıĪ": 3540,
      "åĮħ": 3541,
      "è¿ĩ": 3542,
      "Ġsmelly": 3543,
      "çı¾": 3544,
      "Ġdistance": 3545,
      "Ġwagged": 3546,
      "Ġmir": 3547,
      "Ġexam": 3548,
      "Ġrelax": 3549,
      "Ġdrawing": 3550,
      "body": 3551,
      "Ġteam": 3552,
      "Ġruined": 3553,
      "åİ»": 3554,
      "æł¹": 3555,
      "èĻķ": 3556,
      "æıĲ": 3557,
      "pecially": 3558,
      "ha": 3559,
      "ĠBl": 3560,
      "Ġbathroom": 3561,
      "Ġespecially": 3562,
      "Ġgiggled": 3563,
      "Ġadd": 3564,
      "Ġwis": 3565,
      "Ġok": 3566,
      "Ġasking": 3567,
      "Ġgar": 3568,
      "Ġcri": 3569,
      "Ġpray": 3570,
      "Ġbrush": 3571,
      "åįĩ": 3572,
      "æĥħ": 3573,
      "Ġwalks": 3574,
      "Ġclap": 3575,
      "Ġsight": 3576,
      "ots": 3577,
      "Ġplayground": 3578,
      "Ġsplashed": 3579,
      "Ġfruits": 3580,
      "ĠLeo": 3581,
      "ating": 3582,
      "å¸Ŀ": 3583,
      "Ġmatch": 3584,
      "Who": 3585,
      "Ġones": 3586,
      "Ġlemon": 3587,
      "Ġclown": 3588,
      "Ġcap": 3589,
      "Ġstones": 3590,
      "Ġlying": 3591,
      "å±ķ": 3592,
      "è¾¾": 3593,
      "aged": 3594,
      "Ġmov": 3595,
      "ror": 3596,
      "ory": 3597,
      "Ġnumber": 3598,
      "Their": 3599,
      "è¿Ļ": 3600,
      "æĮģ": 3601,
      "è©²": 3602,
      "Ġfeathers": 3603,
      "Jimmy": 3604,
      "Ġcontent": 3605,
      "Ġquestions": 3606,
      "21": 3607,
      "Ġbody": 3608,
      "æ±Łè¥¿": 3609,
      "åħ¨åĽ½": 3610,
      "åķĨ": 3611,
      "æĬĹæĹ¥": 3612,
      "åŀĭ": 3613,
      "enny": 3614,
      "Ġsailed": 3615,
      "ete": 3616,
      "Ġsoap": 3617,
      "ĠEnd": 3618,
      "Ġfake": 3619,
      "åħĪ": 3620,
      "åĨĽåī¯": 3621,
      "Ġcalling": 3622,
      "æ´Ľ": 3623,
      "éļĬ": 3624,
      "Ġext": 3625,
      "Ġbecome": 3626,
      "Ġeld": 3627,
      "Ġfluffy": 3628,
      "å´": 3629,
      "åĦ": 3630,
      "Ġmic": 3631,
      "éģİ": 3632,
      "å½ĵ": 3633,
      "è³ĩ": 3634,
      "è½¦": 3635,
      "çıŃ": 3636,
      "çĮ®": 3637,
      "Ġfis": 3638,
      "Ġtie": 3639,
      "Ġballs": 3640,
      "Ġdisappeared": 3641,
      "Ġind": 3642,
      "Ġqueen": 3643,
      "ugar": 3644,
      "Ġchange": 3645,
      "Ġmap": 3646,
      "Ġrid": 3647,
      "Ġdogs": 3648,
      "åĲĦ": 3649,
      "çĶ·": 3650,
      "å¯¹": 3651,
      "çĦ¶": 3652,
      "Ġmeasure": 3653,
      "Ġfather": 3654,
      "ĠAt": 3655,
      "ella": 3656,
      "Ġcrack": 3657,
      "Ġlead": 3658,
      "éĶ": 3659,
      "éĢł": 3660,
      "è¿ĳ": 3661,
      "åįĹäº¬": 3662,
      "çĻ¾": 3663,
      "æŃ¤ç«Ļ": 3664,
      "Ġincred": 3665,
      "Ġsugar": 3666,
      "Ġbake": 3667,
      "å°±": 3668,
      "ç§°": 3669,
      "Ġwrote": 3670,
      "è®¾": 3671,
      "Ġsweetie": 3672,
      "åıĥèĢĥ": 3673,
      "Ġunus": 3674,
      "Sally": 3675,
      "Ġfamous": 3676,
      "Ġsell": 3677,
      "Ġlicked": 3678,
      "Me": 3679,
      "Ġjuicy": 3680,
      "Ġcage": 3681,
      "uggest": 3682,
      "å®Į": 3683,
      "çº¿": 3684,
      "éģĭ": 3685,
      "å¤ĸéĥ¨": 3686,
      "illi": 3687,
      "Ġroar": 3688,
      "Ġunusual": 3689,
      "Ġnoisy": 3690,
      "Ġsuggest": 3691,
      "alous": 3692,
      "Ġcraw": 3693,
      "Ġmoving": 3694,
      "Ġeye": 3695,
      "keep": 3696,
      "Ġlose": 3697,
      "Ġdrank": 3698,
      "13": 3699,
      "ĠIf": 3700,
      "Ġjealous": 3701,
      "èĮ": 3702,
      "åħ©": 3703,
      "éĽ·": 3704,
      "è®®": 3705,
      "è¯Ń": 3706,
      "æ´»": 3707,
      "æĶ¯éĺŁ": 3708,
      "çºµéĺŁ": 3709,
      "Ġshoot": 3710,
      "elp": 3711,
      "Ġcovered": 3712,
      "Ġmirror": 3713,
      "Ġcrawled": 3714,
      "Ġskipped": 3715,
      "æĶ¶": 3716,
      "åį°": 3717,
      "æ±ī": 3718,
      "åĮĹäº¬": 3719,
      "å·¥ä½ľ": 3720,
      "çķ¶": 3721,
      "ç·¨": 3722,
      "æĹ¶æľŁ": 3723,
      "æĶ¿æ²»éĥ¨ä¸»ä»»": 3724,
      "è¶Ĭå¾Į": 3725,
      "ti": 3726,
      "Billy": 3727,
      "Ġglow": 3728,
      "hip": 3729,
      "Ġclear": 3730,
      "Ġfine": 3731,
      "Ġeager": 3732,
      "Ġrealised": 3733,
      "Ġord": 3734,
      "Ġextra": 3735,
      "æīĵ": 3736,
      "ç¤¾": 3737,
      "Ġgarage": 3738,
      "Ġtiger": 3739,
      "umbled": 3740,
      "Ġdiscovered": 3741,
      "Jill": 3742,
      "Ġdecide": 3743,
      "Ġincredible": 3744,
      "Ġtape": 3745,
      "Ġthick": 3746,
      "Ġnod": 3747,
      "22": 3748,
      "ç¯": 3749,
      "éº": 3750,
      "Ġshows": 3751,
      "æ¯Ķ": 3752,
      "Ġed": 3753,
      "yal": 3754,
      "ination": 3755,
      "imp": 3756,
      "Ġonce": 3757,
      "Ġtowel": 3758,
      "cil": 3759,
      "Ġpencil": 3760,
      "Ġcolourful": 3761,
      "Ġelderly": 3762,
      "çīĩ": 3763,
      "æİĴ": 3764,
      "è°ĥ": 3765,
      "Ġhappening": 3766,
      "ĠMark": 3767,
      "Ġcover": 3768,
      "ipp": 3769,
      "ique": 3770,
      "Ġyours": 3771,
      "Ġrare": 3772,
      "ï¼į": 3773,
      "å°Ī": 3774,
      "å®£": 3775,
      "åįģäºĮ": 3776,
      "Ġcleaned": 3777,
      "Ġdig": 3778,
      "Ġcheck": 3779,
      "ately": 3780,
      "Ġbranches": 3781,
      "Ġdish": 3782,
      "Ġtag": 3783,
      "Ġcost": 3784,
      "Ġglue": 3785,
      "Ġlouder": 3786,
      "port": 3787,
      "ym": 3788,
      "ĠSusie": 3789,
      "Ġboys": 3790,
      "æĪĺäºī": 3791,
      "å¹´åħ¥åħļ": 3792,
      "ature": 3793,
      "Ġwand": 3794,
      "ipper": 3795,
      "Ġaw": 3796,
      "Ġjoke": 3797,
      "Ġborrow": 3798,
      "Ġsil": 3799,
      "Ġhorn": 3800,
      "èĩº": 3801,
      "å»£": 3802,
      "ç½²": 3803,
      "Help": 3804,
      "ery": 3805,
      "ĠNo": 3806,
      "Ġmoms": 3807,
      "keeper": 3808,
      "Ġboard": 3809,
      "asing": 3810,
      "Ġfrown": 3811,
      "åıĹ": 3812,
      "å®ģ": 3813,
      "å¤§åŃ¸": 3814,
      "æµģ": 3815,
      "olog": 3816,
      "ç±į": 3817,
      "Ġtwist": 3818,
      "Ġchicken": 3819,
      "Ġloyal": 3820,
      "Ġbubbles": 3821,
      "Ġbottom": 3822,
      "Gra": 3823,
      "ured": 3824,
      "Ġorganized": 3825,
      ",âĢĿ": 3826,
      "æ¦": 3827,
      "ĠLittle": 3828,
      "æ°¸": 3829,
      "å¾Ģ": 3830,
      "è§Ĵ": 3831,
      "éļı": 3832,
      "çŁ³": 3833,
      "éĢ²å£«": 3834,
      "Ġunique": 3835,
      "lies": 3836,
      "Ġword": 3837,
      "Ġwrapped": 3838,
      "ĠBlue": 3839,
      "Ġfigure": 3840,
      "Ġham": 3841,
      "Ġmotor": 3842,
      "cept": 3843,
      "Ġstraw": 3844,
      "Ġadventur": 3845,
      "çª": 3846,
      "Ġbarn": 3847,
      "?\".": 3848,
      "åŃ£": 3849,
      "Ġoffered": 3850,
      "æŃ»": 3851,
      "èı¯": 3852,
      "Ġrich": 3853,
      "Ġguess": 3854,
      "Ġlamp": 3855,
      "fast": 3856,
      "alk": 3857,
      "Ġkindness": 3858,
      "Ġboxes": 3859,
      "fic": 3860,
      "26": 3861,
      "Ġcher": 3862,
      "Ġfavour": 3863,
      "å³": 3864,
      "å·²": 3865,
      "Ġmanaged": 3866,
      "Ġbanana": 3867,
      "Al": 3868,
      "imed": 3869,
      "Ġmighty": 3870,
      "Ġang": 3871,
      "eez": 3872,
      "Ġadventurous": 3873,
      "ject": 3874,
      "emo": 3875,
      "Ġhose": 3876,
      "oppy": 3877,
      "æļ": 3878,
      "Ġtoug": 3879,
      "Ġshake": 3880,
      "Ġmod": 3881,
      "Ġgiving": 3882,
      "é¦¬": 3883,
      "æĿ±æĹ¥æľ¬": 3884,
      "é©¬": 3885,
      "èĪīäºº": 3886,
      "Ġsword": 3887,
      "Ġbreakfast": 3888,
      "ĠâĢ": 3889,
      "Ġfavourite": 3890,
      "Ġagainst": 3891,
      "uggled": 3892,
      "Ġspun": 3893,
      "Ġneeds": 3894,
      "Ġperform": 3895,
      "gu": 3896,
      "How": 3897,
      "èĴ": 3898,
      "Ġswan": 3899,
      "å¼Ł": 3900,
      "Ġdiffic": 3901,
      "éĦī": 3902,
      "Ġimpressed": 3903,
      "Ġbalance": 3904,
      "Mummy": 3905,
      "rag": 3906,
      "Ġballoons": 3907,
      "Ġenjoying": 3908,
      "Joe": 3909,
      "æĩ": 3910,
      "ilt": 3911,
      "æľį": 3912,
      "å°ĩ": 3913,
      "éĿĸ": 3914,
      "é¦Ļæ¸¯": 3915,
      "und": 3916,
      "Ġtrucks": 3917,
      "Ġadded": 3918,
      "Ġjewel": 3919,
      "ages": 3920,
      "Well": 3921,
      "head": 3922,
      "Ġturt": 3923,
      "Ġfridge": 3924,
      "Ġdifficult": 3925,
      "Ġbloom": 3926,
      "Ġcompet": 3927,
      "Ġhappiness": 3928,
      "ä¸¤": 3929,
      "Ġegg": 3930,
      "å¹²": 3931,
      "Ġchase": 3932,
      "æľĪåı°": 3933,
      "å§Ĩ": 3934,
      "èĪ¹": 3935,
      "æĻĭ": 3936,
      "è¨Ī": 3937,
      "çģ£": 3938,
      "å·´å£«": 3939,
      "Ġfool": 3940,
      "aw": 3941,
      "Ġlifted": 3942,
      "Ġdepend": 3943,
      "Amy": 3944,
      "Ġdizzy": 3945,
      "Ġcoins": 3946,
      "ä¹Ĳ": 3947,
      "å¥¹": 3948,
      "Ġwhale": 3949,
      "Ġlaughs": 3950,
      "land": 3951,
      "Ġhero": 3952,
      "Ġtough": 3953,
      "Sue": 3954,
      "Ġmarket": 3955,
      "Ġpointing": 3956,
      "Ġknife": 3957,
      "apping": 3958,
      "Ġpee": 3959,
      "2020": 3960,
      "åħ°": 3961,
      "å¾ĭ": 3962,
      "ç´Ħ": 3963,
      "Ġhurts": 3964,
      "Ġharm": 3965,
      "Ġfour": 3966,
      "Ġloudly": 3967,
      "Ġrecord": 3968,
      "Ġweird": 3969,
      "Ġcircle": 3970,
      "Ġapolog": 3971,
      "Ġfat": 3972,
      "ache": 3973,
      "Ġlog": 3974,
      "Ġfright": 3975,
      "Ġhunt": 3976,
      "anged": 3977,
      "Ġlearning": 3978,
      "Ġbald": 3979,
      "arry": 3980,
      "Ġnorm": 3981,
      "Ġslipped": 3982,
      "åĭ¤": 3983,
      "æĸĩçĮ®": 3984,
      "Ġbelonged": 3985,
      "iv": 3986,
      "Spot": 3987,
      "ĠToday": 3988,
      "Ġwrap": 3989,
      "Ġsafely": 3990,
      "Ġsmoke": 3991,
      "Ġpump": 3992,
      "Ġgrown": 3993,
      "Ġter": 3994,
      "åıĸ": 3995,
      "æ´¾": 3996,
      "é«Ķ": 3997,
      "ä¹¦è®°": 3998,
      "Ġicy": 3999,
      "ready": 4000,
      "Ġears": 4001,
      "iable": 4002,
      "Ġtrack": 4003,
      "Ġmeans": 4004,
      "Ġcircles": 4005,
      "Ġcompetit": 4006,
      "ud": 4007,
      "Ġref": 4008,
      "Ġflash": 4009,
      "å¸Ń": 4010,
      "æĺ¯ä¸Ģ": 4011,
      "Ġpainting": 4012,
      "åıĤèĢĥæĸĩçĮ®": 4013,
      "èĤ²": 4014,
      "éĵģ": 4015,
      "ye": 4016,
      "Ġbrilli": 4017,
      "Ġsearch": 4018,
      "Ġbuttons": 4019,
      "Ġcheerful": 4020,
      "Ġwagon": 4021,
      "rage": 4022,
      "Ġmelt": 4023,
      "Ġgoat": 4024,
      "åħ³": 4025,
      "æľª": 4026,
      "Ġalready": 4027,
      "ä¸Ńå¼ı": 4028,
      "å§Ķåĳĺä¼ļ": 4029,
      "éĲµè·¯": 4030,
      "å¨ģ": 4031,
      "äººæ°ĳåħ±åĴĮåĽ½": 4032,
      "Ġmovie": 4033,
      "Ġbrilliant": 4034,
      "Ġhelps": 4035,
      "Ġchoose": 4036,
      "Ġnormal": 4037,
      "Ġfoolish": 4038,
      "Ġfalls": 4039,
      "Ġdolp": 4040,
      "Ġjack": 4041,
      "éĢĿ": 4042,
      "å·¥ç¨ĭ": 4043,
      "ĠKitty": 4044,
      "åİĨä»»": 4045,
      "éĿ©åĳ½": 4046,
      "Ġbitter": 4047,
      "Ġstubb": 4048,
      "Ġgrace": 4049,
      "Ġsounded": 4050,
      "Ġdreamed": 4051,
      "Ġoffice": 4052,
      "Ġstrawber": 4053,
      "Ġscare": 4054,
      "Ġcam": 4055,
      "Ġrat": 4056,
      "Here": 4057,
      "ĠRose": 4058,
      "Ġlean": 4059,
      "éĥ¨éĺŁ": 4060,
      "éģ¸": 4061,
      "çİ°": 4062,
      "ä¿®": 4063,
      "ç½Ĺ": 4064,
      "Ġguit": 4065,
      "Ġweal": 4066,
      "Ġbossy": 4067,
      "Ġindepend": 4068,
      "ĠMrs": 4069,
      "na": 4070,
      "ouses": 4071,
      "Ġtunn": 4072,
      "Ġedge": 4073,
      "Ġrough": 4074,
      "Ġhats": 4075,
      "Ġtoast": 4076,
      "arth": 4077,
      "Ġstubborn": 4078,
      "omed": 4079,
      "Ġskin": 4080,
      "å¾ģ": 4081,
      "ä¸ŃåĽ½äººæ°ĳè§£æĶ¾åĨĽéĻĨ": 4082,
      "èĲ¬": 4083,
      "éħį": 4084,
      "Ġcity": 4085,
      "Ġshape": 4086,
      "Ġunl": 4087,
      "Ġdreams": 4088,
      "Ġmixed": 4089,
      "Ġvalu": 4090,
      "Ġknows": 4091,
      "Ġtrunk": 4092,
      "ndpa": 4093,
      "Ġber": 4094,
      "Ġcro": 4095,
      "ĠMy": 4096,
      "wards": 4097,
      "amond": 4098,
      "pes": 4099,
      "èħ": 4100,
      "é²": 4101,
      "Ġfier": 4102,
      "Ġwalls": 4103,
      "èĹı": 4104,
      "ä¸Ńåįİäººæ°ĳåħ±åĴĮåĽ½": 4105,
      "Ġturtle": 4106,
      "Ġberries": 4107,
      "Ġtimes": 4108,
      "Ġshells": 4109,
      "edient": 4110,
      "ĠBobby": 4111,
      "Ġkinds": 4112,
      "Ġuseful": 4113,
      "cient": 4114,
      "Ġshark": 4115,
      "Ġisland": 4116,
      "Ġaccept": 4117,
      "Ġdependable": 4118,
      "bin": 4119,
      "Ġsaying": 4120,
      "Ġexcla": 4121,
      "Ġabove": 4122,
      "Ġhouses": 4123,
      "Ġproudly": 4124,
      "è®Ĭ": 4125,
      "åĵģ": 4126,
      "ä¸ľåĮĹ": 4127,
      "ç©º": 4128,
      "ç¤º": 4129,
      "è³ĩæĸĻ": 4130,
      "Ġstronger": 4131,
      "Ġbrothers": 4132,
      "ĠBrown": 4133,
      "Ġexclaimed": 4134,
      "Ġreliable": 4135,
      "ola": 4136,
      "Ġharder": 4137,
      "Ġbatter": 4138,
      "Ġnosy": 4139,
      "Ġwake": 4140,
      "Ġusing": 4141,
      "Ġindependent": 4142,
      "Ġexplored": 4143,
      "Ġjog": 4144,
      "Ġfierce": 4145,
      "Ġstri": 4146,
      "åľĺ": 4147,
      "ï¼Īï¼ī": 4148,
      "çīĪ": 4149,
      "æĻ®": 4150,
      "Ġcudd": 4151,
      "sc": 4152,
      "ado": 4153,
      "Ġterri": 4154,
      "gy": 4155,
      "Ġescape": 4156,
      "Ġlibr": 4157,
      "Ġtools": 4158,
      "Ġlaw": 4159,
      "Ġfrightened": 4160,
      "åĻ": 4161,
      "Ġroof": 4162,
      "æĪĸ": 4163,
      "å±¬": 4164,
      "éĻķ": 4165,
      "è£ħ": 4166,
      "Ġgem": 4167,
      "ĠBu": 4168,
      "Ġspace": 4169,
      "ĠNemo": 4170,
      "Ġguitar": 4171,
      "orge": 4172,
      "Ġbushes": 4173,
      "Ġpil": 4174,
      "Ġstudy": 4175,
      "Ġdiamond": 4176,
      "Ġstumbled": 4177,
      "æĸĹ": 4178,
      "å·±": 4179,
      "åĬŁ": 4180,
      "çİĩ": 4181,
      "ç¥ŀ": 4182,
      "ç¾İåľĭ": 4183,
      "oot": 4184,
      "Ġfre": 4185,
      "Ġobedient": 4186,
      "Ġlow": 4187,
      "Ġjoined": 4188,
      "Ġcabin": 4189,
      "Ġancient": 4190,
      "å©": 4191,
      "æ¿": 4192,
      "çĹ": 4193,
      "åįģä¸ī": 4194,
      "å»¶": 4195,
      "ä¿¡": 4196,
      "èŃ°": 4197,
      "æ¡Ĥ": 4198,
      "æ¡Ī": 4199,
      "Ġmagn": 4200,
      "Ġmem": 4201,
      "Ġcop": 4202,
      "Ġlights": 4203,
      "Ġsuggested": 4204,
      "Ġyog": 4205,
      "Ġvaluable": 4206,
      "Ġenorm": 4207,
      "ress": 4208,
      "ĠElla": 4209,
      "Ġinvited": 4210,
      "Ġenormous": 4211,
      "Ġtwig": 4212,
      "ç²": 4213,
      "é¨": 4214,
      "å°¼": 4215,
      "Ġthoughtful": 4216,
      "æŃ¦æľ¯": 4217,
      "æºĲ": 4218,
      "åĺīéĿĸ": 4219,
      "irp": 4220,
      "Ġstream": 4221,
      "Ġshowing": 4222,
      "Ġbrightly": 4223,
      "âĢĶ": 4224,
      "ĠPete": 4225,
      "Ġbags": 4226,
      "Ġclay": 4227,
      "Ġparrot": 4228,
      "Ġfountain": 4229,
      "Ġtele": 4230,
      "Ġreminded": 4231,
      "Ġtummy": 4232,
      "Ġunk": 4233,
      "Ġsuccessful": 4234,
      "Ġnotice": 4235,
      "Ġbuilt": 4236,
      "Ġthemselves": 4237,
      "Ġexcitedly": 4238,
      "Ġways": 4239,
      "Ġcrayon": 4240,
      "Ġcomput": 4241,
      "Ġgrandpa": 4242,
      "Ġtank": 4243,
      "Ġbeet": 4244,
      "Ġwiped": 4245,
      "ĠFred": 4246,
      "Ġfingers": 4247,
      "Ġadmired": 4248,
      "uring": 4249,
      "Ġpractice": 4250,
      "com": 4251,
      "Ġpoured": 4252,
      "Ġspoiled": 4253,
      "Ġspinning": 4254,
      "Ġsuit": 4255,
      "ä¹ł": 4256,
      "éĢī": 4257,
      "å½¢": 4258,
      "è½¬": 4259,
      "çĦ¡": 4260,
      "é¾Ļ": 4261,
      "å±Ĭåħ¨åĽ½": 4262,
      "inal": 4263,
      "ĠWhenever": 4264,
      "Ġcounted": 4265,
      "Ġfrag": 4266,
      "Ġsmaller": 4267,
      "Ġdead": 4268,
      "Ġdesign": 4269,
      "Ġcostum": 4270,
      "ines": 4271,
      "Ġrode": 4272,
      "Ġbounce": 4273,
      "eorge": 4274,
      "Ġdelighted": 4275,
      "ĠAlice": 4276,
      "Ġseem": 4277,
      "anny": 4278,
      "ä¸ĩ": 4279,
      "å·¦": 4280,
      "æĽ¼": 4281,
      "æķ´": 4282,
      "æĮī": 4283,
      "åģĩ": 4284,
      "Ġkicked": 4285,
      "Ġflute": 4286,
      "Ġresc": 4287,
      "nown": 4288,
      "Ġshone": 4289,
      "Ġcamera": 4290,
      "Ġbeak": 4291,
      "ention": 4292,
      "Ġwealthy": 4293,
      "iginal": 4294,
      "éĮ": 4295,
      "anut": 4296,
      "ä¼ł": 4297,
      "æ²³åįĹ": 4298,
      "Ġlab": 4299,
      "Ġjam": 4300,
      "Ġlocked": 4301,
      "Ġchanged": 4302,
      "dom": 4303,
      "ipe": 4304,
      "Em": 4305,
      "Ġyarn": 4306,
      "Ġstove": 4307,
      "Ġsearching": 4308,
      "az": 4309,
      "Ġswe": 4310,
      "ither": 4311,
      "Ġbees": 4312,
      "åĨĢ": 4313,
      "Ġfinding": 4314,
      "æŃ·": 4315,
      "éĻ³": 4316,
      "æĽ´": 4317,
      "ç§į": 4318,
      "èģ·": 4319,
      "Ġson": 4320,
      "Ġhoop": 4321,
      "Ġclock": 4322,
      "ience": 4323,
      "ray": 4324,
      "Ġnurse": 4325,
      "Ġraced": 4326,
      "Ġshadow": 4327,
      "Ġsunfl": 4328,
      "Ġpicking": 4329,
      "Ġchose": 4330,
      "anger": 4331,
      "30": 4332,
      "Ġoriginal": 4333,
      "Ġsteal": 4334,
      "inary": 4335,
      "Ġrushed": 4336,
      "åĨĽåĮºåī¯åı¸ä»¤åĳĺ": 4337,
      "åĲİåĭ¤": 4338,
      "ĠMar": 4339,
      "illa": 4340,
      "Ġpost": 4341,
      "Ġmarble": 4342,
      "Ġserious": 4343,
      "Ġyet": 4344,
      "Ġstairs": 4345,
      "iew": 4346,
      "Ġunknown": 4347,
      "Ġtooth": 4348,
      "Ġthirst": 4349,
      "Ġmarch": 4350,
      "uth": 4351,
      "Ġdelicate": 4352,
      "Ġscrat": 4353,
      "Ġcleaning": 4354,
      "Ġsolve": 4355,
      "Ġfragile": 4356,
      "cod": 4357,
      "åį³": 4358,
      "å¤§ä»£è¡¨": 4359,
      "æĭ¬": 4360,
      "æĬķ": 4361,
      "åŃ¦éĻ¢": 4362,
      "éĹ¨": 4363,
      "èĳĹ": 4364,
      "Ġpotato": 4365,
      "Ġforth": 4366,
      "Ġnicely": 4367,
      "corn": 4368,
      "Ġenvel": 4369,
      "Ġbeetle": 4370,
      "upid": 4371,
      "Ġfresh": 4372,
      "æ§": 4373,
      "ans": 4374,
      "åĪĳ": 4375,
      "Ġsniff": 4376,
      "æ²Ļ": 4377,
      "åºĹ": 4378,
      "å§Ķåĵ¡": 4379,
      "åĶĲ": 4380,
      "æ®µ": 4381,
      "åĮħæĭ¬": 4382,
      "Ġclum": 4383,
      "Ġcheap": 4384,
      "Ġdove": 4385,
      "ĠDucky": 4386,
      "Ġeng": 4387,
      "oc": 4388,
      "Ġplayful": 4389,
      "Ġrose": 4390,
      "ations": 4391,
      "Ġow": 4392,
      "åı³": 4393,
      "éĢŁ": 4394,
      "æģ©": 4395,
      "Ġsalad": 4396,
      "Ġpirate": 4397,
      "Ġregular": 4398,
      "Ġhairy": 4399,
      "ĠYour": 4400,
      "Ġcomputer": 4401,
      "gest": 4402,
      "Ġsauce": 4403,
      "Ġmole": 4404,
      "Ġpatter": 4405,
      "Ġpumpkin": 4406,
      "Ġgoose": 4407,
      "Ġhalf": 4408,
      "Ġdesk": 4409,
      "Ġhammer": 4410,
      "Ġangel": 4411,
      "Ġthirsty": 4412,
      "Ġstamp": 4413,
      "oomy": 4414,
      "umbers": 4415,
      "é§": 4416,
      "Ġdull": 4417,
      "Ġbiggest": 4418,
      "Ġallowed": 4419,
      "å¤ĩ": 4420,
      "å¾ŀ": 4421,
      "ï¼īãĢģ": 4422,
      "å¼µ": 4423,
      "çķ«": 4424,
      "è¦ĸ": 4425,
      "Ġmetal": 4426,
      "1949": 4427,
      "åıĤåĬłäºĨ": 4428,
      "ç¦ıå»º": 4429,
      "io": 4430,
      "under": 4431,
      "Ġmis": 4432,
      "ric": 4433,
      "Ġpainted": 4434,
      "Ġpant": 4435,
      "Ġmoder": 4436,
      "Ġcrocod": 4437,
      "Ġpow": 4438,
      "Ġdough": 4439,
      "Ġrubb": 4440,
      "Ġstat": 4441,
      "Ġstupid": 4442,
      "Ġpeanut": 4443,
      "Ġbutterflies": 4444,
      "Ġcarrying": 4445,
      "Ġpopcorn": 4446,
      "Ġwitch": 4447,
      "Ġstops": 4448,
      "eeze": 4449,
      "Ġtunnel": 4450,
      "Ġenc": 4451,
      "Ġtelling": 4452,
      "Ġpige": 4453,
      "Ġterrible": 4454,
      "åľŁ": 4455,
      "å®¹": 4456,
      "æĺŃ": 4457,
      "çºª": 4458,
      "åĬ©": 4459,
      "å±ħ": 4460,
      "ç»Ļ": 4461,
      "éĽħ": 4462,
      "å¥ĩ": 4463,
      "è¾½": 4464,
      "æ¹ĸåįĹ": 4465,
      "è±«": 4466,
      "çĿ£": 4467,
      "éĦīè©¦": 4468,
      "Ġpattern": 4469,
      "ilty": 4470,
      "ĠBobo": 4471,
      "Ġclumsy": 4472,
      "Ġview": 4473,
      "Ġguilty": 4474,
      "Ġseeds": 4475,
      "Ġcere": 4476,
      "Ġprint": 4477,
      "!\".": 4478,
      "vice": 4479,
      "het": 4480,
      "Ġending": 4481,
      "Ġnote": 4482,
      "çĨ": 4483,
      "Ġthose": 4484,
      "åıª": 4485,
      "ä¸Ńåľĭ": 4486,
      "Ġcareless": 4487,
      "Ġhandle": 4488,
      "æµĻ": 4489,
      "è·¯åĨĽ": 4490,
      "ç¨±": 4491,
      "å¦»": 4492,
      "å¡Ķ": 4493,
      "é¨İ": 4494,
      "rn": 4495,
      "Ġhay": 4496,
      "Ġboats": 4497,
      "Go": 4498,
      "Ġer": 4499,
      "ellig": 4500,
      "Ġbump": 4501,
      "Ġscatter": 4502,
      "Ġpersist": 4503,
      "Ġtomato": 4504,
      "Ġwhispered": 4505,
      "Ġbull": 4506,
      "Ġzip": 4507,
      "Ġwashed": 4508,
      "llip": 4509,
      "Ġumb": 4510,
      "Ġjolly": 4511,
      "Ġmodern": 4512,
      "llipop": 4513,
      "Ġumbre": 4514,
      "Ġing": 4515,
      "Ġguard": 4516,
      "23": 4517,
      "ç¢": 4518,
      "å¸Į": 4519,
      "èµ°": 4520,
      "Ġdoesn": 4521,
      "æ¨ĵ": 4522,
      "åĨĽåī¯åĨĽéķ¿": 4523,
      "ĠDave": 4524,
      "Ġholds": 4525,
      "Ġflashlight": 4526,
      "isk": 4527,
      "ĠFin": 4528,
      "Ġmel": 4529,
      "Ġarg": 4530,
      "aghet": 4531,
      "Ġhanded": 4532,
      "aghetti": 4533,
      "time": 4534,
      "Ġlollipop": 4535,
      "Ġbirdie": 4536,
      "Ġdestro": 4537,
      "redient": 4538,
      "Ġmissing": 4539,
      "Ġingredient": 4540,
      "Ġshel": 4541,
      "Ġshiver": 4542,
      "Ġarrow": 4543,
      "Ġpopular": 4544,
      "Ġimpress": 4545,
      "Ġreward": 4546,
      "ç»ĵ": 4547,
      "Ġsleeping": 4548,
      "ç½®": 4549,
      "æŁ¥": 4550,
      "çĩŁ": 4551,
      "æ¸¸åĩ»": 4552,
      "Ġflex": 4553,
      "Ġrug": 4554,
      "Ġdriving": 4555,
      "Ġthunder": 4556,
      "Ġleaving": 4557,
      "Ġdreaming": 4558,
      "Ġspaghetti": 4559,
      "Ġfriendship": 4560,
      "Ġopens": 4561,
      "See": 4562,
      "Ġdust": 4563,
      "Ġcompass": 4564,
      "Ġnature": 4565,
      "å®ĥ": 4566,
      "1914": 4567,
      "æĺ¥": 4568,
      "Ġpeeked": 4569,
      "Ġcone": 4570,
      "ision": 4571,
      "ugged": 4572,
      "Ġload": 4573,
      "Ġscreen": 4574,
      "Ġprize": 4575,
      "Ġliz": 4576,
      "Ġintellig": 4577,
      "fa": 4578,
      "ement": 4579,
      "Ġhelm": 4580,
      "Ġcereal": 4581,
      "Ġnumbers": 4582,
      "ĊĊ": 4583,
      "ä¹ĺ": 4584,
      "å¼ķ": 4585,
      "Ġblueber": 4586,
      "çķĻ": 4587,
      "ä¸ĸçķĮ": 4588,
      "éĽĨåĽ¢": 4589,
      "åĲİåĭ¤éĥ¨": 4590,
      "Ġjug": 4591,
      "Ġsne": 4592,
      "robe": 4593,
      "Ġtem": 4594,
      "ĠEllie": 4595,
      "ĠFr": 4596,
      "Ġdeliver": 4597,
      "Ġcur": 4598,
      "arsh": 4599,
      "Ġsparkled": 4600,
      "Ġchar": 4601,
      "Ġdolphin": 4602,
      "Ġearth": 4603,
      "Ġfork": 4604,
      "Ġsudden": 4605,
      "èĿ": 4606,
      "Ġsink": 4607,
      "ä½ı": 4608,
      "æĺĵ": 4609,
      "å¸¦": 4610,
      "å¸«": 4611,
      "ä¸»è¦ģ": 4612,
      "åĽ¢éķ¿": 4613,
      "ç¸½": 4614,
      "ä½įæĸ¼": 4615,
      "æĦ¿": 4616,
      "åĸ®": 4617,
      "éĩİæĪĺ": 4618,
      "çªģ": 4619,
      "ĠMummy": 4620,
      "Ġenvelope": 4621,
      "Ġwire": 4622,
      "Ġstranger": 4623,
      "Ġtravel": 4624,
      "Ġrubbed": 4625,
      "Ġjacket": 4626,
      "Ġbeauty": 4627,
      "Ġtrap": 4628,
      "Ġgraceful": 4629,
      "opter": 4630,
      "Ġmeal": 4631,
      "Ġrub": 4632,
      "Ġprep": 4633,
      "Ġingredients": 4634,
      "Ġmailbox": 4635,
      "Ġimagined": 4636,
      "ãĤ": 4637,
      "æľº": 4638,
      "åıĭ": 4639,
      "Ġscale": 4640,
      "æĹ©": 4641,
      "æĹ¥ä»»": 4642,
      "çĤ®": 4643,
      "å®¶æĹı": 4644,
      "uper": 4645,
      "å²ģ": 4646,
      "Ġflexible": 4647,
      "Ġtied": 4648,
      "Ġengine": 4649,
      "25": 4650,
      "ube": 4651,
      "ĠWhile": 4652,
      "Ġwarned": 4653,
      "Ġreading": 4654,
      "Ġcrocodile": 4655,
      "Ġspilled": 4656,
      "ict": 4657,
      "Ġpenny": 4658,
      "comfort": 4659,
      "ĠRed": 4660,
      "Ġbent": 4661,
      "Ġstage": 4662,
      "While": 4663,
      "Ġperm": 4664,
      "Ġcompassion": 4665,
      "illie": 4666,
      "æĸ½": 4667,
      "éĻ½": 4668,
      "éĻĪ": 4669,
      "ãĢĭï¼Į": 4670,
      "é£¾": 4671,
      "ophie": 4672,
      "Ġearly": 4673,
      "ĠBella": 4674,
      "Ġsorts": 4675,
      "Ġtowers": 4676,
      "Ġthinking": 4677,
      "ĠâĢĵ": 4678,
      "comfortable": 4679,
      "ĠSn": 4680,
      "Ġknock": 4681,
      "tter": 4682,
      "Ġobject": 4683,
      "Ġuncomfortable": 4684,
      "host": 4685,
      "Ġplaced": 4686,
      "Ġcrazy": 4687,
      "Ġbarber": 4688,
      "Ġquestion": 4689,
      "Ġtwirled": 4690,
      "Ġenv": 4691,
      "Ġpup": 4692,
      "Ġwing": 4693,
      "åľĸ": 4694,
      "å®¤": 4695,
      "çĶµ": 4696,
      "éģĶ": 4697,
      "åħ¬åı¸": 4698,
      "èĲ½": 4699,
      "Ġpale": 4700,
      "Ġdiscover": 4701,
      "Ġcelebrate": 4702,
      "éĲµè·¯è»Ĭç«Ļ": 4703,
      "Ġorder": 4704,
      "Ġsquare": 4705,
      "Ġsurf": 4706,
      "Ġimpressive": 4707,
      "Ġshut": 4708,
      "Ġcomplet": 4709,
      "Ġgasped": 4710,
      "Ġadvice": 4711,
      "Ġpatch": 4712,
      "Ġpersistent": 4713,
      "ĠKim": 4714,
      "Ġaunt": 4715,
      "Ġslides": 4716,
      "Ġjet": 4717,
      "Ġgrowing": 4718,
      "èĦ": 4719,
      "èĸ": 4720,
      "é¤": 4721,
      "Ġshocked": 4722,
      "åħ´": 4723,
      "éĢĻ": 4724,
      "éĿŀ": 4725,
      "è®¡": 4726,
      "å±±ä¸ľ": 4727,
      "ä¹ĭéĸĵ": 4728,
      "è£½": 4729,
      "éĲµéģĵ": 4730,
      "èį£": 4731,
      "éĥİä¸Ń": 4732,
      "Ġharmless": 4733,
      "æµĻæ±Ł": 4734,
      "Ġhung": 4735,
      "Ġsquash": 4736,
      "Ġsunflower": 4737,
      "Ġumbrella": 4738,
      "arian": 4739,
      "ĠMike": 4740,
      "Ġtruth": 4741,
      "Ġsnuggled": 4742,
      "Ġlizard": 4743,
      "Ġspell": 4744,
      "Ġsett": 4745,
      "Ġcooking": 4746,
      "If": 4747,
      "åĨį": 4748,
      "å¤ı": 4749,
      "å¯Į": 4750,
      "ä¸»äºĭ": 4751,
      "æķħ": 4752,
      "å¸Īéķ¿": 4753,
      "åį°åº¦": 4754,
      "Ġotter": 4755,
      "Ġcomb": 4756,
      "Ġcupboard": 4757,
      "Ġcreatures": 4758,
      "Ġstatue": 4759,
      "Mary": 4760,
      "Ġstickers": 4761,
      "orant": 4762,
      "Ġrece": 4763,
      "Ġrefused": 4764,
      "Ġanx": 4765,
      "Ġcompetitive": 4766,
      "Ġdestroy": 4767,
      "Ġenth": 4768,
      "eezed": 4769,
      "awn": 4770,
      "Ġtask": 4771,
      "Ġwindows": 4772,
      "Ġmill": 4773,
      "loo": 4774,
      "Ġspoke": 4775,
      "çĵ": 4776,
      "è¬": 4777,
      "Ġstation": 4778,
      "ä»Ĭ": 4779,
      "å§ĵ": 4780,
      "2019": 4781,
      "Ġacorn": 4782,
      "ĠGrandpa": 4783,
      "å¦Ĥ": 4784,
      "åı¯ä»¥": 4785,
      "éĸĭå§ĭ": 4786,
      "æ¢Ŀ": 4787,
      "è¶Ĭå¾Įç·ļ": 4788,
      "éĢĿä¸ĸ": 4789,
      "Ġtorn": 4790,
      "ĠHere": 4791,
      "Ġneat": 4792,
      "Ġsadly": 4793,
      "ĠLook": 4794,
      "Ġtrash": 4795,
      "Ġpants": 4796,
      "Ġmask": 4797,
      "Ġbrace": 4798,
      "Ġcreate": 4799,
      "Ġcounting": 4800,
      "Ġletters": 4801,
      "Ġahead": 4802,
      "ince": 4803,
      "Ġgor": 4804,
      "Ġcrane": 4805,
      "Ġintelligent": 4806,
      "Ġenthus": 4807,
      "ĠToby": 4808,
      "Ġpigeon": 4809,
      "Ġanxious": 4810,
      "cream": 4811,
      "Ġphot": 4812,
      "=\"": 4813,
      "Ġdug": 4814,
      "åĨ³": 4815,
      "ĠCl": 4816,
      "ä¼¯": 4817,
      "ç»ĩ": 4818,
      "ç»Ħç»ĩ": 4819,
      "Ġhumble": 4820,
      "çĹħ": 4821,
      "é¨İå£«": 4822,
      "ĠPe": 4823,
      "Ġwheels": 4824,
      "Ġpony": 4825,
      "Ġuncle": 4826,
      "Ġlibrary": 4827,
      "Ġtrump": 4828,
      "Ġignorant": 4829,
      "Ġchance": 4830,
      "ebra": 4831,
      "uddy": 4832,
      "Ġresist": 4833,
      "cu": 4834,
      "oe": 4835,
      "Ġjumps": 4836,
      "Ġbrighter": 4837,
      "Ġcollar": 4838,
      "Ġspring": 4839,
      "Ġsofa": 4840,
      "ä¸°": 4841,
      "åŃĺ": 4842,
      "æŃ²": 4843,
      "ç»´": 4844,
      "æ³°": 4845,
      "åķŁ": 4846,
      "éĢ£çµĲ": 4847,
      "ibb": 4848,
      "iches": 4849,
      "Ġnames": 4850,
      "Yay": 4851,
      "Ġgloomy": 4852,
      "Ġpretending": 4853,
      "htub": 4854,
      "Ġscoot": 4855,
      "Ġpengu": 4856,
      "Ġattic": 4857,
      "Ġcourage": 4858,
      "ices": 4859,
      "Ġchasing": 4860,
      "ĠTweety": 4861,
      "ĠSh": 4862,
      "ikes": 4863,
      "stri": 4864,
      "Ġbathtub": 4865,
      "Ġghost": 4866,
      "used": 4867,
      "Ġbadly": 4868,
      "Ġnuts": 4869,
      "24": 4870,
      "aid": 4871,
      "Ġbase": 4872,
      "ĠĊĊ": 4873,
      "ä»¶": 4874,
      "åįģåħ«": 4875,
      "æĪĲçĤº": 4876,
      "åĵĪ": 4877,
      "ä¸Ĭæµ·": 4878,
      "å¿µ": 4879,
      "èĥ¡": 4880,
      "å¿ĹæĦ¿": 4881,
      "Ġordinary": 4882,
      "gust": 4883,
      "Ġfearful": 4884,
      "ief": 4885,
      "Ġvol": 4886,
      "Ġparade": 4887,
      "noon": 4888,
      "Ġafternoon": 4889,
      "Ġspeed": 4890,
      "Ġdisgust": 4891,
      "Ġpepper": 4892,
      "Ġzebra": 4893,
      "Ġjeep": 4894,
      "Ġcricket": 4895,
      "Ow": 4896,
      "Ġimpat": 4897,
      "Ġtur": 4898,
      "åĨĽåĽ¢": 4899,
      "ä½Ļ": 4900,
      "åĳĬ": 4901,
      "æŃ¥": 4902,
      "åįģä¸ĥ": 4903,
      "æķ¸": 4904,
      "åŃ¦æł¡": 4905,
      "åħ«è·¯åĨĽ": 4906,
      "ä»¥åıĬ": 4907,
      "äº¤éĢļ": 4908,
      "å¢ĥ": 4909,
      "æį®": 4910,
      "Ġhurry": 4911,
      "å¤ĸéĥ¨éĢ£çµĲ": 4912,
      "åĻ¨": 4913,
      "Ġstack": 4914,
      "Ġanywhere": 4915,
      "Ġmay": 4916,
      "ĠPat": 4917,
      "ips": 4918,
      "Ġpasta": 4919,
      "aches": 4920,
      "Ġtriang": 4921,
      "Ġencou": 4922,
      "bled": 4923,
      "erable": 4924,
      "Ġflour": 4925,
      "Ġgifted": 4926,
      "Ġtrumpet": 4927,
      "Ġmush": 4928,
      "å®Ĺ": 4929,
      "åĬŀ": 4930,
      "å¤§æ¨ĵ": 4931,
      "1930": 4932,
      "éĦĤ": 4933,
      "çį²": 4934,
      "Ġsupport": 4935,
      "aff": 4936,
      "Ġshaking": 4937,
      "Ġattract": 4938,
      "Ġimpatient": 4939,
      "Ġsend": 4940,
      "ceed": 4941,
      "Ġadmire": 4942,
      "Ġnail": 4943,
      "Ġsandwiches": 4944,
      "Ġcamp": 4945,
      "Ġrestless": 4946,
      "Ġbandage": 4947,
      "Ġmiserable": 4948,
      "Ġmelon": 4949,
      "Ġcharming": 4950,
      "cano": 4951,
      "Ġï¼Ī": 4952,
      "Ġgum": 4953,
      "ä»ģ": 4954,
      "Ġolder": 4955,
      "éĸĺ": 4956,
      "éļ¨": 4957,
      "ç¥¨": 4958,
      "éŁ³æ¨Ĥ": 4959,
      "Ġvalue": 4960,
      "èĿ¶": 4961,
      "Ġgir": 4962,
      "Ġfurther": 4963,
      "iest": 4964,
      "Ġalert": 4965,
      "Ġcompl": 4966,
      "Ġtrick": 4967,
      "Ġpracticed": 4968,
      "Ġled": 4969,
      "Ġitself": 4970,
      "Ġostri": 4971,
      "ĠJoey": 4972,
      "Ġleash": 4973,
      "Ġcards": 4974,
      "Ġshine": 4975,
      "Ġcartoon": 4976,
      "Ġtire": 4977,
      "Ġhipp": 4978,
      "ĠPap": 4979,
      "Ġgorilla": 4980,
      "Ġpurse": 4981,
      "Ġclub": 4982,
      "Ġleop": 4983,
      "åįĶ": 4984,
      "ä½ķ": 4985,
      "å·¥åĨľ": 4986,
      "ä¾į": 4987,
      "ç´ļ": 4988,
      "èĬ±": 4989,
      "Ġturkey": 4990,
      "Ġmeas": 4991,
      "Ġpebble": 4992,
      "Ġbounced": 4993,
      "Ġhunter": 4994,
      "Ġsalt": 4995,
      "Ġrules": 4996,
      "aroo": 4997,
      "ĠSm": 4998,
      "angaroo": 4999,
      "ĠLola": 5000,
      "Ġdecorate": 5001,
      "coa": 5002,
      "enry": 5003,
      "Ġstarts": 5004,
      "Ġfirework": 5005,
      "å®ľ": 5006,
      "ç¬¬åħŃ": 5007,
      "éĥ¨åĪĨ": 5008,
      "åįģåĽĽ": 5009,
      "åī¯ä¸»ä»»": 5010,
      "èµµ": 5011,
      "åĵ¥": 5012,
      "æĪĺæĸĹ": 5013,
      "Ġdrawer": 5014,
      "æĬ¤": 5015,
      "é»ĥ": 5016,
      "é»ĳ": 5017,
      "2012": 5018,
      "Ġyawn": 5019,
      "Ġdeaf": 5020,
      "Ġsuper": 5021,
      "ĠWh": 5022,
      "Ġnowhere": 5023,
      "Ġwaff": 5024,
      "Ġfu": 5025,
      "urb": 5026,
      "Ġwheat": 5027,
      "Ġdisgusting": 5028,
      "ĠEverything": 5029,
      "Ġcocoa": 5030,
      "ĠEventually": 5031,
      "uct": 5032,
      "Re": 5033,
      "cut": 5034,
      "Ġkangaroo": 5035,
      "Ġdisturb": 5036,
      "aby": 5037,
      "Ġuniver": 5038,
      "Ġsoldier": 5039,
      "Ġvolcano": 5040,
      "Ġbet": 5041,
      "æĹĹ": 5042,
      "åĭĴ": 5043,
      "èĩªæ²»": 5044,
      "ç¾©": 5045,
      "å»ºç«ĭ": 5046,
      "åĿĿ": 5047,
      "éĽ»å½±": 5048,
      "åįıä¼ļ": 5049,
      "æĩī": 5050,
      "ĠTr": 5051,
      "Ġseal": 5052,
      "par": 5053,
      "ĠMandy": 5054,
      "opus": 5055,
      "ctopus": 5056,
      "Ġcompassionate": 5057,
      "Ġnobody": 5058,
      "Ġenvious": 5059,
      "Ġener": 5060,
      "Ġsucceed": 5061,
      "aulif": 5062,
      "Ġanyway": 5063,
      "Ġstretched": 5064,
      "Ġshoe": 5065,
      "Ġpiano": 5066,
      "gging": 5067,
      "aulifl": 5068,
      "shed": 5069,
      "Ġbeep": 5070,
      "ses": 5071,
      "Ġpressed": 5072,
      "çħ": 5073,
      "çĬ": 5074,
      "ĠAlex": 5075,
      "å¹´åĬłåħ¥": 5076,
      "åį·": 5077,
      "å®Ī": 5078,
      "Ġvi": 5079,
      "ä¸ŃåĽ½äººæ°ĳå¿ĹæĦ¿": 5080,
      "ä¸»ä¹ī": 5081,
      "è¾°": 5082,
      "çĻ»": 5083,
      "Ġsplit": 5084,
      "éĿ¢é¨İå£«": 5085,
      "åĶ®": 5086,
      "çł´": 5087,
      "åıĥèĢĥè³ĩæĸĻ": 5088,
      "åģĩéĿ¢é¨İå£«": 5089,
      "Ġoctopus": 5090,
      "Ġspir": 5091,
      "Ġcats": 5092,
      "Ġsepar": 5093,
      "Ġshouts": 5094,
      "Ġmagnet": 5095,
      "Ġmushroom": 5096,
      "gn": 5097,
      "Ġpackage": 5098,
      "Alice": 5099,
      "Ġcooked": 5100,
      "hood": 5101,
      "Ġcarp": 5102,
      "Ġdess": 5103,
      "icopter": 5104,
      "ummer": 5105,
      "Ġelev": 5106,
      "Give": 5107,
      "Ġshield": 5108,
      "äºĳ": 5109,
      "åĽ´": 5110,
      "åľº": 5111,
      "å±Ĩ": 5112,
      "åįģäºĶ": 5113,
      "çīĻ": 5114,
      "æ£®": 5115,
      "æĺŃåĴĮ": 5116,
      "Ġbicy": 5117,
      "Ġmath": 5118,
      "ebook": 5119,
      "Ġhook": 5120,
      "Ġrice": 5121,
      "ĠAre": 5122,
      "ĠGive": 5123,
      "Ġcush": 5124,
      "Ġnotebook": 5125,
      "Ġcase": 5126,
      "aurant": 5127,
      "Ġhelicopter": 5128,
      "Ġbracelet": 5129,
      "Ġlid": 5130,
      "heart": 5131,
      "Ġpaws": 5132,
      "aked": 5133,
      "Ġsent": 5134,
      "ĠWhere": 5135,
      "Ġrestaurant": 5136,
      "Ġbarrel": 5137,
      "Ġhelmet": 5138,
      "Ġcaulifl": 5139,
      "Ġattractive": 5140,
      "Ġleopard": 5141,
      "Ġhelpless": 5142,
      "æĪ¿": 5143,
      "æ±Ĥ": 5144,
      "çĪµ": 5145,
      "çµ±": 5146,
      "åłĤ": 5147,
      "æĦĽ": 5148,
      "å¹¿å·ŀ": 5149,
      "Ġcandle": 5150,
      "Ġelevator": 5151,
      "Ġoy": 5152,
      "year": 5153,
      "Ġpun": 5154,
      "Ġimpro": 5155,
      "Ġtap": 5156,
      "Ġcryst": 5157,
      "ophone": 5158,
      "Ġavoc": 5159,
      "Ġfilthy": 5160,
      "Ġostrich": 5161,
      "ccol": 5162,
      "ci": 5163,
      "Ġhive": 5164,
      "ĠBear": 5165,
      "Ġexplain": 5166,
      "Ġlively": 5167,
      "ccoli": 5168,
      "Ġskip": 5169,
      "Ġspirit": 5170,
      "Ġgoal": 5171,
      "Ġtray": 5172,
      "Ġunpack": 5173,
      "Ġcact": 5174,
      "Ġgiggle": 5175,
      "ipping": 5176,
      "Ġreco": 5177,
      "Ġcows": 5178,
      "Ġbackpack": 5179,
      "åĪĺ": 5180,
      "æ²Ī": 5181,
      "åºĶ": 5182,
      "æİ¨": 5183,
      "Ġsticker": 5184,
      "å¥½": 5185,
      "Ġdistant": 5186,
      "çĳŀ": 5187,
      "Ġtemp": 5188,
      "night": 5189,
      "Benny": 5190,
      "ubby": 5191,
      "ats": 5192,
      "Everyone": 5193,
      "Ġstirred": 5194,
      "Ġhippo": 5195,
      "JR": 5196,
      "ser": 5197,
      "Ġsize": 5198,
      "åħ·": 5199,
      "åįĬ": 5200,
      "190": 5201,
      "èĢģ": 5202,
      "æĺĮ": 5203,
      "Ġquite": 5204,
      "çīĮ": 5205,
      "ä¼Ĭ": 5206,
      "ä¸»å¸Ń": 5207,
      "éĺŁéķ¿": 5208,
      "åŁĥ": 5209,
      "ä½įäºİ": 5210,
      "åĿĩ": 5211,
      "å²Ń": 5212,
      "ç¾İåĽ½": 5213,
      "ç©¶": 5214,
      "ĠTweetie": 5215,
      "æ¸ħæľĿ": 5216,
      "åĤ³": 5217,
      "ç®¡çĲĨ": 5218,
      "å¹²éĥ¨": 5219,
      "çĵ¦": 5220,
      "å·¥åĨľçº¢åĨĽ": 5221,
      "Ġneedle": 5222,
      "ĠGeorge": 5223,
      "Ġrepair": 5224,
      "Ġscrew": 5225,
      "Ġjokes": 5226,
      "Ġsomewhere": 5227,
      "Ġvine": 5228,
      "Ġsort": 5229,
      "Ġraven": 5230,
      "Ch": 5231,
      "Ġshopkeeper": 5232,
      "Bye": 5233,
      "Ġorganize": 5234,
      "Ġwishes": 5235,
      "Ġbri": 5236,
      "Ġswitch": 5237,
      "Ġexper": 5238,
      "Ġgrabs": 5239,
      "arlie": 5240,
      "Ġmicr": 5241,
      "Ġcactus": 5242,
      "Ġharsh": 5243,
      "Ġcurt": 5244,
      "Ġur": 5245,
      "Ġgolf": 5246,
      "Ġbarking": 5247,
      "äºĽ": 5248,
      "æľ¨": 5249,
      "ä»¬": 5250,
      "æĶ»": 5251,
      "åľĴ": 5252,
      "æĹ¥åľ¨": 5253,
      "çĽ£": 5254,
      "æĮ¥": 5255,
      "åħ¶ä¸Ń": 5256,
      "èªŀ": 5257,
      "Ġcarpet": 5258,
      "Ġcurtain": 5259,
      "Ġcauliflower": 5260,
      "orable": 5261,
      "ĠBill": 5262,
      "astic": 5263,
      "olin": 5264,
      "Ġrepe": 5265,
      "Ġradio": 5266,
      "Ġfrowned": 5267,
      "ĠLee": 5268,
      "Ġpulls": 5269,
      "Ġsilver": 5270,
      "inking": 5271,
      "Ġthief": 5272,
      "Ġbroccoli": 5273,
      "Ġdessert": 5274,
      "Ġlions": 5275,
      "Ġhappier": 5276,
      "ĠPaul": 5277,
      "Ġclapping": 5278,
      "Ľå¾ĭ": 5279,
      "Ġcomet": 5280,
      "Ġsoar": 5281,
      "å¹´åıĤåĬł": 5282,
      "æĸĽå¾ĭ": 5283,
      "æľĪä»»": 5284,
      "çĽŁ": 5285,
      "å£¬": 5286,
      "æĮ¯": 5287,
      "è¦ĭ": 5288,
      "è»Ĭç«Ļå¤§æ¨ĵ": 5289,
      "Ġthread": 5290,
      "éĤ¦": 5291,
      "åįģä¸Ģå¹´": 5292,
      "çĸĨ": 5293,
      "é²ģ": 5294,
      "Ġeraser": 5295,
      "Ġchubby": 5296,
      "ĠPolly": 5297,
      "Ġswinging": 5298,
      "ps": 5299,
      "Ġpushes": 5300,
      "Ġstared": 5301,
      "Ġcountry": 5302,
      "Ġspeak": 5303,
      "Ġten": 5304,
      "stairs": 5305,
      "Ġadorable": 5306,
      "Ġsweater": 5307,
      "Ġcolours": 5308,
      "Ġpushing": 5309,
      "Ġpoem": 5310,
      "Ġfive": 5311,
      "Ġsheet": 5312,
      "ĠAndy": 5313,
      "Ġriding": 5314,
      "Ġscooter": 5315,
      "Ġinse": 5316,
      "çļĩ": 5317,
      "å¾Ī": 5318,
      "çĶĺ": 5319,
      "éĻ¤": 5320,
      "éĻį": 5321,
      "æīį": 5322,
      "æµİ": 5323,
      "Ġsandbox": 5324,
      "åľ°åĮº": 5325,
      "1931": 5326,
      "ç´Ģ": 5327,
      "ãĢįãĢĤ": 5328,
      "ç¬¬äºĮæ¬¡": 5329,
      "æĵĬ": 5330,
      "ç¸£äºº": 5331,
      "æĮĩæĮ¥": 5332,
      "éŃı": 5333,
      "Ġbicycle": 5334,
      "Ġbin": 5335,
      "Ġart": 5336,
      "Ġchalk": 5337,
      "Ġfinds": 5338,
      "Daisy": 5339,
      "elery": 5340,
      "Ġprov": 5341,
      "Ġsteps": 5342,
      "hino": 5343,
      "Ġmicrophone": 5344,
      "gie": 5345,
      "Ġlaser": 5346,
      "Ġstom": 5347,
      "Ġmeat": 5348,
      "Ġroared": 5349,
      "Ġbehave": 5350,
      "Ġlightning": 5351,
      "Ġtreasures": 5352,
      "Ġmodest": 5353,
      "Ġol": 5354,
      "Ġholes": 5355,
      "ĠSmith": 5356,
      "Ġframe": 5357,
      "Ġsecond": 5358,
      "ef": 5359,
      "ron": 5360,
      "ooped": 5361,
      "Ġonion": 5362,
      "Ġlear": 5363,
      "Ġpolish": 5364,
      "Ġrespectful": 5365,
      "ĠUn": 5366,
      "æľĽ": 5367,
      "éĥ¨éĥ¨éķ¿": 5368,
      "éĥ¨ä¸»äºĭ": 5369,
      "è¡ĵ": 5370,
      "åįģåħŃ": 5371,
      "æĻ¯": 5372,
      "Ġmessage": 5373,
      "åħ¬éĩĮ": 5374,
      "åŃ¦ä¹ł": 5375,
      "ç¨®": 5376,
      "ç¦»": 5377,
      "æĦŁ": 5378,
      "åģľ": 5379,
      "è¶ħ": 5380,
      "åĶ±": 5381,
      "æĴŃ": 5382,
      "ä¸ŃåĽ½äººæ°ĳè§£æĶ¾åĨĽéĻĨåĨĽç¬¬": 5383,
      "iskers": 5384,
      "ä¸ŃåĽ½äººæ°ĳå¿ĹæĦ¿åĨĽ": 5385,
      "Ġlearnt": 5386,
      "Ġsock": 5387,
      "stic": 5388,
      "Little": 5389,
      "reci": 5390,
      "cycle": 5391,
      "Ġtroubled": 5392,
      "Ġribb": 5393,
      "Ġbears": 5394,
      "Ġstretch": 5395,
      "Ġrecogn": 5396,
      "Ġants": 5397,
      "Ġhedge": 5398,
      "Ġstarting": 5399,
      "Ġsle": 5400,
      "ucked": 5401,
      "bul": 5402,
      "Ġrag": 5403,
      "Ġrod": 5404,
      "Ġbuzz": 5405,
      "Ġpapers": 5406,
      "Ġrolling": 5407,
      "Ġpaid": 5408,
      "Ġsummer": 5409,
      "Ġluck": 5410,
      "Ġpor": 5411,
      "Ġrhino": 5412,
      "Ġkay": 5413,
      "Ġdishes": 5414,
      "Ġchain": 5415,
      "Ġended": 5416,
      "Ġmonkeys": 5417,
      "Ġneighbour": 5418,
      "Ġzoomed": 5419,
      "|-": 5420,
      "å°İ": 5421,
      "iastic": 5422,
      "çº³": 5423,
      "âĢĿãĢĤ": 5424,
      "åº·": 5425,
      "åĨĽåĮºåī¯": 5426,
      "Ġwallet": 5427,
      "ç±»": 5428,
      "åħµåĽ¢": 5429,
      "åĪĹè¡¨": 5430,
      "é½Ĳ": 5431,
      "Ġshelter": 5432,
      "Ġenthusiastic": 5433,
      "Ġins": 5434,
      "Ġhadn": 5435,
      "enter": 5436,
      "Ġquar": 5437,
      "Ġpoint": 5438,
      "Ġbreat": 5439,
      "Ġcooler": 5440,
      "Ġsym": 5441,
      "Ġsweetheart": 5442,
      "Ġcostume": 5443,
      "any": 5444,
      "Ġeither": 5445,
      "Ġmuff": 5446,
      "Ġfireman": 5447,
      "Ġtripped": 5448,
      "Ġdrawings": 5449,
      "Ġgro": 5450,
      "ĠJerry": 5451,
      "Ġgiven": 5452,
      "Ġappreci": 5453,
      "Ġbasketball": 5454,
      "Ġax": 5455,
      "Ġcelery": 5456,
      "Ġrescue": 5457,
      "Ġped": 5458,
      "ĠBuddy": 5459,
      "ä¸Ńèı¯": 5460,
      "Ġlaund": 5461,
      "ä¸ŃåĽ½å·¥åĨľçº¢åĨĽ": 5462,
      "æĪ¶": 5463,
      "å·¡": 5464,
      "éĻĦ": 5465,
      "èĪª": 5466,
      "ç»Ł": 5467,
      "Ġraining": 5468,
      "èĩªå·±": 5469,
      "å±±è¥¿": 5470,
      "ä¿Ħ": 5471,
      "ä¹ĭä¸Ģ": 5472,
      "æ¨¡": 5473,
      "Daddy": 5474,
      "JRæĿ±æĹ¥æľ¬": 5475,
      "Ġallig": 5476,
      "Ġforgave": 5477,
      "Ġfle": 5478,
      "Ġlaundry": 5479,
      "render": 5480,
      "aled": 5481,
      "Ġvisited": 5482,
      "iron": 5483,
      "Ġtriangle": 5484,
      "Ġlistening": 5485,
      "Ġhoping": 5486,
      "Ġavail": 5487,
      "Jenny": 5488,
      "reeze": 5489,
      "Ġfootball": 5490,
      "çĴ": 5491,
      "æĪĳ": 5492,
      "å±ĭ": 5493,
      "çĤ¹": 5494,
      "è¡ĮæĶ¿": 5495,
      "bol": 5496,
      "åİ¿äºº": 5497,
      "æľŁéĹ´": 5498,
      "è¼¯": 5499,
      "Ġscold": 5500,
      "Ġbubble": 5501,
      "Ġleaned": 5502,
      "Ġjellyfish": 5503,
      "Ġpilot": 5504,
      "Ġsymbol": 5505,
      "Ġaer": 5506,
      "Ġbikes": 5507,
      "ĠSandy": 5508,
      "opl": 5509,
      "ĠWould": 5510,
      "anda": 5511,
      "Ġhaircut": 5512,
      "Ġaeropl": 5513,
      "Ġtheater": 5514,
      "Ġevening": 5515,
      "Ġclimbing": 5516,
      "kelet": 5517,
      "Ġshort": 5518,
      "Ġtrains": 5519,
      "Ġobser": 5520,
      "Ġshovel": 5521,
      "eer": 5522,
      "Ġmild": 5523,
      "Ġfort": 5524,
      "Ġcube": 5525,
      "Ġmarry": 5526,
      "Ġcrystal": 5527,
      "Ġaxe": 5528,
      "Ġavailable": 5529,
      "æ¾": 5530,
      "åįķ": 5531,
      "å°ģ": 5532,
      "åĪĴ": 5533,
      "åĲİä»»": 5534,
      "è¾¹": 5535,
      "1947": 5536,
      "æĸ¹éĿ¢": 5537,
      "ç±³éĽħ": 5538,
      "çłĶ": 5539,
      "å¯¼åĳĺ": 5540,
      "Ġunlock": 5541,
      "cast": 5542,
      "Ġpal": 5543,
      "Ġhall": 5544,
      "Ġcane": 5545,
      "Ġalive": 5546,
      "ĠRo": 5547,
      "Ġpad": 5548,
      "Ġyach": 5549,
      "Ġenergy": 5550,
      "sely": 5551,
      "Ġpainter": 5552,
      "Ġinsist": 5553,
      "ffe": 5554,
      "Ġskill": 5555,
      "Ġambul": 5556,
      "Ġmarched": 5557,
      "happy": 5558,
      "ecause": 5559,
      "Ġpeek": 5560,
      "ffee": 5561,
      "ait": 5562,
      "äº²": 5563,
      "åħĴ": 5564,
      "åįļ": 5565,
      "æŃ¢": 5566,
      "éģĬ": 5567,
      "ç§»": 5568,
      "å¯¦": 5569,
      "å¥ī": 5570,
      "è¯´": 5571,
      "æ³½": 5572,
      "1933": 5573,
      "2013": 5574,
      "åħ¶ä»ĸ": 5575,
      "æĸ°æ½Łå¸Ĥ": 5576,
      "Ġmama": 5577,
      "Ġfilm": 5578,
      "Ġmug": 5579,
      "Ġairport": 5580,
      "Ġskelet": 5581,
      "ĠGrace": 5582,
      "Ġincl": 5583,
      "Ġtube": 5584,
      "icer": 5585,
      "Ġgrapes": 5586,
      "Ġsprink": 5587,
      "ense": 5588,
      "Ġputting": 5589,
      "Ġclosely": 5590,
      "Ġstrugg": 5591,
      "Ġchecked": 5592,
      "Ġappl": 5593,
      "Ġthanks": 5594,
      "Ġjudge": 5595,
      "Ġfields": 5596,
      "Grandma": 5597,
      "Ġpowder": 5598,
      "Ġviolin": 5599,
      "Ġink": 5600,
      "chan": 5601,
      "Ġsandcast": 5602,
      "Ġhuman": 5603,
      "Ġstrawberry": 5604,
      "Ġyacht": 5605,
      "Ġpage": 5606,
      "ophy": 5607,
      "Ġtricks": 5608,
      "Ġambulance": 5609,
      "azz": 5610,
      "ãģ": 5611,
      "ç°": 5612,
      "èĵ": 5613,
      "éĨ": 5614,
      "ä¸ģ": 5615,
      "åı¦": 5616,
      "å¹´ä»»": 5617,
      "åĨĽäºĭ": 5618,
      "æĹł": 5619,
      "Ġpeach": 5620,
      "åºŃ": 5621,
      "çľŁ": 5622,
      "1932": 5623,
      "å¤ĸéĥİ": 5624,
      "çģ«": 5625,
      "çģ°": 5626,
      "è¿ĲåĬ¨": 5627,
      "..": 5628,
      "Ġpipe": 5629,
      "zzy": 5630,
      "Ġshrimp": 5631,
      "ĠBrownie": 5632,
      "27": 5633,
      "Ġpole": 5634,
      "Ġcardboard": 5635,
      "Ha": 5636,
      "Ġdive": 5637,
      "ĠSophie": 5638,
      "Ġsoil": 5639,
      "Ġreef": 5640,
      "Ġsoftly": 5641,
      "Ġvide": 5642,
      "ĠV": 5643,
      "Ġbur": 5644,
      "Ġcord": 5645,
      "ĠBunny": 5646,
      "Ġreind": 5647,
      "Ġpress": 5648,
      "ĠWhiskers": 5649,
      "Ġmen": 5650,
      "Ġcups": 5651,
      "Ġjournal": 5652,
      "ĠPapa": 5653,
      "pe": 5654,
      "Ġboots": 5655,
      "åıĺ": 5656,
      "aggie": 5657,
      "æ°ĳæĹı": 5658,
      "ä¸ŃåĽ½æŃ¦æľ¯": 5659,
      "Ġdisag": 5660,
      "èģĸ": 5661,
      "å¹³æĪĲ": 5662,
      "é¾į": 5663,
      "åĨħæĪĺ": 5664,
      "Ġpalace": 5665,
      "ides": 5666,
      "play": 5667,
      "Ġbreaks": 5668,
      "Ġsurrender": 5669,
      "Ġskeleton": 5670,
      "Ġfauc": 5671,
      "Ġtrophy": 5672,
      "Ġmule": 5673,
      "Ġcomplete": 5674,
      "ckey": 5675,
      "Ġhockey": 5676,
      "Ġunhappy": 5677,
      "Ġknot": 5678,
      "mand": 5679,
      "ceros": 5680,
      "Ġstuffed": 5681,
      "Ġalligator": 5682,
      "ler": 5683,
      "Ġoil": 5684,
      "Ġsmells": 5685,
      "Ġcushion": 5686,
      "chanic": 5687,
      "ween": 5688,
      "Ġvest": 5689,
      "Ġbul": 5690,
      "Ġbelt": 5691,
      "nam": 5692,
      "ç¡": 5693,
      "éĬ": 5694,
      "ä¸´": 5695,
      "Ġshade": 5696,
      "åĽ½åħ±": 5697,
      "æ°ĳä¸»": 5698,
      "ä¼ĳ": 5699,
      "éĽĻ": 5700,
      "æ³¢": 5701,
      "ãĢĭãĢģ": 5702,
      "ç¶Ń": 5703,
      "æ¹ĺ": 5704,
      "æĹħå®¢": 5705,
      "å¢ŀ": 5706,
      "æ§ĭ": 5707,
      "Ġoyster": 5708,
      "Ġflies": 5709,
      "Ġfalling": 5710,
      "Ġcherries": 5711,
      "Ġphoto": 5712,
      "Ġfaucet": 5713,
      "Ġshakes": 5714,
      "angu": 5715,
      "Ġbetween": 5716,
      "Ġmechanic": 5717,
      "Ġminute": 5718,
      "Ġreindeer": 5719,
      "Ġkayak": 5720,
      "Ġlend": 5721,
      "Ġsunset": 5722,
      "Ġdisplay": 5723,
      "Ġporch": 5724,
      "seum": 5725,
      "Ġtuna": 5726,
      "Ġraft": 5727,
      "Ġrhinoceros": 5728,
      "edy": 5729,
      "Ġvend": 5730,
      "Ġperfectly": 5731,
      "Ġlawy": 5732,
      "Ġbulb": 5733,
      "28": 5734,
      "å°¾": 5735,
      "ä¸Ńå¿ĥ": 5736,
      "éķ¿å¾ģ": 5737,
      "æīĺ": 5738,
      "æµ¦": 5739,
      "è¯º": 5740,
      "è¢ģ": 5741,
      "åł±": 5742,
      "189": 5743,
      "åĽłæŃ¤": 5744,
      "æĵĶ": 5745,
      "æ»¡": 5746,
      "affe": 5747,
      "Ġtax": 5748,
      "iling": 5749,
      "Ġmixer": 5750,
      "Ġapologized": 5751,
      "ĠSnow": 5752,
      "Ġinsect": 5753,
      "Ġhut": 5754,
      "Ġwaving": 5755,
      "ica": 5756,
      "Ġcoffee": 5757,
      "Ġglove": 5758,
      "Ġsaus": 5759,
      "ories": 5760,
      "ĠWill": 5761,
      "Ġfeelings": 5762,
      "ected": 5763,
      "ĠMaria": 5764,
      "eath": 5765,
      "Ġlangu": 5766,
      "Ġcreated": 5767,
      "Ġsailor": 5768,
      "Ġrubber": 5769,
      "Ġeagerly": 5770,
      "ges": 5771,
      "Ġdrops": 5772,
      "ccer": 5773,
      "Ġlie": 5774,
      "åħĦ": 5775,
      "Ġquit": 5776,
      "è¾ĸ": 5777,
      "ä½ľåĵģ": 5778,
      "è©©": 5779,
      "åĢĻ": 5780,
      "æĬĹæĹ¥æĪĺäºī": 5781,
      "å³°": 5782,
      "åĽ½åħ±åĨħæĪĺ": 5783,
      "lid": 5784,
      "Ġcounter": 5785,
      "Ġwinter": 5786,
      "Ġfisher": 5787,
      "erc": 5788,
      "Ġkitty": 5789,
      "ason": 5790,
      "Ġsoccer": 5791,
      "una": 5792,
      "Ġrow": 5793,
      "Ġforgotten": 5794,
      "Ġbarks": 5795,
      "Ġsneak": 5796,
      "Ġquarrel": 5797,
      "Ġlime": 5798,
      "ĠRu": 5799,
      "Ġsteak": 5800,
      "ites": 5801,
      "Ġrever": 5802,
      "Ġnapkin": 5803,
      "Ġpenguin": 5804,
      "æĲ": 5805,
      "ä¸Ģä¸ª": 5806,
      "çº¦": 5807,
      "èĩ´": 5808,
      "å§Ķä¹¦è®°": 5809,
      "æĪĲä¸º": 5810,
      "æ³¨": 5811,
      "æ´¥": 5812,
      "æĽ¾ç¥ĸ": 5813,
      "æ¯ı": 5814,
      "åħ¨åľĭ": 5815,
      "1945": 5816,
      "é©»": 5817,
      "ç¹¼": 5818,
      "æĪĲç«ĭåĲİ": 5819,
      "æĮīå¯Ł": 5820,
      "è¾°ç§ĳ": 5821,
      "ito": 5822,
      "Ġpair": 5823,
      "ison": 5824,
      "Ġkingdom": 5825,
      "Ġbananas": 5826,
      "Ġmuseum": 5827,
      "Ġgiraffe": 5828,
      "Ġaeroplane": 5829,
      "Ġheaded": 5830,
      "ĠInst": 5831,
      "ues": 5832,
      "Ġtwink": 5833,
      "ctory": 5834,
      "Ġchickens": 5835,
      "Ġgrocer": 5836,
      "ĠOr": 5837,
      "Ġiron": 5838,
      "Ġdancer": 5839,
      "Ġattention": 5840,
      "chair": 5841,
      "Ġloop": 5842,
      "Ġfishing": 5843,
      "Ġseeing": 5844,
      "Ġheads": 5845,
      "Ġzipper": 5846,
      "Ġfrogs": 5847,
      "æ¤": 5848,
      "æĤ": 5849,
      "ä¸ĵ": 5850,
      "ents": 5851,
      "Ġexerc": 5852,
      "å¤į": 5853,
      "éĥ´": 5854,
      "å¸¶": 5855,
      "è¿ĺ": 5856,
      "Ġshouldn": 5857,
      "çİī": 5858,
      "åŁŁ": 5859,
      "éĹ®": 5860,
      "åı°çģ£": 5861,
      "urch": 5862,
      "Ġfactory": 5863,
      "ĠRos": 5864,
      "ney": 5865,
      "Ġpanda": 5866,
      "Ġcrow": 5867,
      "Ġgolden": 5868,
      "Ġbreeze": 5869,
      "unately": 5870,
      "Ġornam": 5871,
      "Ġarmchair": 5872,
      "Ġvendor": 5873,
      "Ġbaking": 5874,
      "Ġwelcomed": 5875,
      "Ġavocado": 5876,
      "ĠLilly": 5877,
      "izes": 5878,
      "Ġsir": 5879,
      "åŃĻ": 5880,
      "å¼·": 5881,
      "æ²ĥ": 5882,
      "éĻŀ": 5883,
      "è¿°": 5884,
      "åĩºåı£": 5885,
      "æ¯Ľ": 5886,
      "èĥİ": 5887,
      "Ġcollected": 5888,
      "éĢ²è¡Į": 5889,
      "æ¹ĸåĮĹ": 5890,
      "éĽ»è¦ĸ": 5891,
      "Ġcelebrated": 5892,
      "éĿĴå¹´": 5893,
      "éĮĦ": 5894,
      "åķŁçĶ¨": 5895,
      "Ġtaxi": 5896,
      "nger": 5897,
      "Ġlives": 5898,
      "Ġvet": 5899,
      "Ġdiscu": 5900,
      "Ġimagine": 5901,
      "Ġmedal": 5902,
      "Ġwife": 5903,
      "Ġherb": 5904,
      "Ġweather": 5905,
      "ĠMillie": 5906,
      "Ġswung": 5907,
      "Ġoffer": 5908,
      "Ġshouting": 5909,
      "Ġrot": 5910,
      "quito": 5911,
      "Ġcheek": 5912,
      "Ġhotel": 5913,
      "Ġdiary": 5914,
      "Ġplastic": 5915,
      "Ġchirp": 5916,
      "Ġtrail": 5917,
      "Ġblowing": 5918,
      "ippery": 5919,
      "inarian": 5920,
      "rod": 5921,
      "eterinarian": 5922,
      "Ġthrows": 5923,
      "place": 5924,
      "Ġslippery": 5925,
      "Ġplanet": 5926,
      "Ġcable": 5927,
      "Ġnovel": 5928,
      "Ġveterinarian": 5929,
      "Ġfreez": 5930,
      "Ġpastry": 5931,
      "Ġtub": 5932,
      "ĠBet": 5933,
      "Ġlawyer": 5934,
      "Ġwool": 5935,
      "éĢĢ": 5936,
      "åĨĽåĮºåĲİåĭ¤éĥ¨": 5937,
      "è¨ĺ": 5938,
      "æ¸¡": 5939,
      "ä¾Ľ": 5940,
      "çŃīèģĮ": 5941,
      "æħķ": 5942,
      "éªĳ": 5943,
      "è§Ĵèī²": 5944,
      "Ġfisherman": 5945,
      "Ġpresents": 5946,
      "aud": 5947,
      "Ġmeeting": 5948,
      "Ġsprayed": 5949,
      "Ġpirates": 5950,
      "Ġmotorcycle": 5951,
      "Ġmemories": 5952,
      "Ġflame": 5953,
      "Ġmos": 5954,
      "Ġstud": 5955,
      "Ġbaseball": 5956,
      "iture": 5957,
      "Ġskull": 5958,
      "urniture": 5959,
      "Ġfurniture": 5960,
      "Ġimagination": 5961,
      "Ġpassport": 5962,
      "Ġflea": 5963,
      "Ġble": 5964,
      "äº«": 5965,
      "åĨł": 5966,
      "Your": 5967,
      "åįĥ": 5968,
      "æĶ¿åįĶ": 5969,
      "åįģä¹Ŀ": 5970,
      "ç§Ģ": 5971,
      "æķĪ": 5972,
      "åĩºçĶŁ": 5973,
      "å·ŀåºľ": 5974,
      "1934": 5975,
      "elcome": 5976,
      "éŁĵ": 5977,
      "èªª": 5978,
      "æĥ³": 5979,
      "æĴ¤": 5980,
      "ç¹Ķ": 5981,
      "åĮ»éĻ¢": 5982,
      "å°Īè¼¯": 5983,
      "å£¬è¾°ç§ĳ": 5984,
      "çģ°èĿ¶": 5985,
      "Ġmosquito": 5986,
      "Eventually": 5987,
      "asher": 5988,
      "Ġslept": 5989,
      "Ġmagaz": 5990,
      "gen": 5991,
      "Ġinf": 5992,
      "Ġmaze": 5993,
      "Ġtrave": 5994,
      "Ġhappens": 5995,
      "Ġskirt": 5996,
      "Ġtear": 5997,
      "Today": 5998,
      "ab": 5999,
      "washer": 6000,
      "Ġshower": 6001,
      "Ġpetals": 6002,
      "Ġdishwasher": 6003,
      "right": 6004,
      "omm": 6005,
      "Ġreve": 6006,
      "aces": 6007,
      "Ġmystery": 6008,
      "Inside": 6009,
      "Ġglowing": 6010,
      "Ġdressed": 6011,
      "inked": 6012,
      "ï¼ģ": 6013,
      "äººå¤§ä»£è¡¨": 6014,
      "å¸ģ": 6015,
      "éĽ¢": 6016,
      "å»Ł": 6017,
      "å¥§": 6018,
      "è¨Ģ": 6019,
      "è¾¦": 6020,
      "æĸ°çĸĨ": 6021,
      "æĬ¥": 6022,
      "åħ¬å®ī": 6023,
      "ç¾¤": 6024,
      "ç§ĳéķ¿": 6025,
      "æĸĩåĮĸ": 6026,
      "éĤĦ": 6027,
      "æ¡¥": 6028,
      "Ġbelongs": 6029,
      "èĪ°éĺŁ": 6030,
      "æ¡Ĥéĺ³": 6031,
      "çłĶç©¶": 6032,
      "te": 6033,
      "ĠHarry": 6034,
      "Ġstable": 6035,
      "Ġplayer": 6036,
      "Ġprun": 6037,
      "Ġlawn": 6038,
      "Ġshoulder": 6039,
      "Emma": 6040,
      "Ġcrib": 6041,
      "Ġtemple": 6042,
      "Ġtoil": 6043,
      "Ġworth": 6044,
      "Ġignored": 6045,
      "Ġstaff": 6046,
      "Ġgrin": 6047,
      "Ġfireplace": 6048,
      "ĠGod": 6049,
      "Ġsque": 6050,
      "Ġintrod": 6051,
      "Ġmop": 6052,
      "ï¼Īï¼Į": 6053,
      "ä¹ħ": 6054,
      "åīµ": 6055,
      "æķ°": 6056,
      "æī¹": 6057,
      "ä¸īçº§": 6058,
      "æĶ¿æ²»äººçī©": 6059,
      "åı¸ä»¤éĥ¨": 6060,
      "Ġsquirrels": 6061,
      "åīįå¾Ģ": 6062,
      "æĵļ": 6063,
      "éŁ³ä¹Ĳ": 6064,
      "æ¥ŃåĭĻ": 6065,
      "Ġwipe": 6066,
      "åĳ¨éĤĬ": 6067,
      "Together": 6068,
      "çµĦç¹Ķ": 6069,
      "Ġdoors": 6070,
      "Ġitch": 6071,
      "Ġinvest": 6072,
      "Ġsurround": 6073,
      "Ġclassroom": 6074,
      "Ġpra": 6075,
      "Ġblankets": 6076,
      "ĠAnnie": 6077,
      "imney": 6078,
      "orses": 6079,
      "Ġhanging": 6080,
      "Ġtoilet": 6081,
      "Next": 6082,
      "Ġsince": 6083,
      "Ġticket": 6084,
      "Ġpoints": 6085,
      "Ġthrowing": 6086,
      "29": 6087,
      "Because": 6088,
      "Ġchimney": 6089,
      "Ġbouncing": 6090,
      "Ġseparate": 6091,
      "Ġinvestig": 6092,
      "ĠSee": 6093,
      "Ġsty": 6094,
      "ä¸Ķ": 6095,
      "ãĢī": 6096,
      "å¤±": 6097,
      "å®ŀ": 6098,
      "æ°ĳåľĭ": 6099,
      "âĢĿï¼Į": 6100,
      "éĻµ": 6101,
      "ç»ĥ": 6102,
      "ç«Ļåīį": 6103,
      "åī¯éĥ¨éķ¿": 6104,
      "æķ£": 6105,
      "è¥¿åĮĹ": 6106,
      "èĩªåĭķ": 6107,
      "å¿ħ": 6108,
      "ä¾¿": 6109,
      "éĤ£": 6110,
      "Ġstreng": 6111,
      "åģļ": 6112,
      "çŁ¥ç¸£": 6113,
      "èįī": 6114,
      "èĩºä¸Ń": 6115,
      "æ¦ľ": 6116,
      "åĺīéĿĸåįģä¸Ģå¹´": 6117,
      "çĤ®åħµ": 6118,
      "æ²Īéĺ³": 6119,
      "Ġlanguage": 6120,
      "Ġhorses": 6121,
      "medi": 6122,
      "Ġargue": 6123,
      "ĠTony": 6124,
      "Ġalarm": 6125,
      "Ġchurch": 6126,
      "Ġmoves": 6127,
      "Ġapplaud": 6128,
      "Ġsniffed": 6129,
      "mediately": 6130,
      "rosc": 6131,
      "Ġpopped": 6132,
      "Ġminer": 6133,
      "Ġfolder": 6134,
      "Ġaccepted": 6135,
      "Ġpoke": 6136,
      "Ġbury": 6137,
      "Ġstrength": 6138,
      "50": 6139,
      "Ġsailing": 6140,
      "Ġmicrosc": 6141,
      "men": 6142,
      "hero": 6143,
      "Ġsticky": 6144,
      ")ï¼Į": 6145,
      "éİ": 6146,
      "Ġweigh": 6147,
      "Ġblinked": 6148,
      "æ°ĳåĽ½": 6149,
      "ç»ª": 6150,
      "å¼Ģå§ĭ": 6151,
      "è®¤": 6152,
      "åľ°æĸ¹": 6153,
      "éĸĢ": 6154,
      "åħ¬è·¯": 6155,
      "æĢĿ": 6156,
      "æŀľ": 6157,
      "1946": 6158,
      "æĻĤéĸĵ": 6159,
      "ç©Ĩ": 6160,
      "Ġmistakes": 6161,
      "éľĢ": 6162,
      "åĥı": 6163,
      "åĦ¿": 6164,
      "Ġsuperhero": 6165,
      "case": 6166,
      "mm": 6167,
      "rs": 6168,
      "Ġsung": 6169,
      "reek": 6170,
      "Ġyogurt": 6171,
      "Ġmicroscope": 6172,
      "Ġprevent": 6173,
      "Ġburned": 6174,
      "Ġcreek": 6175,
      "aws": 6176,
      "Ġagre": 6177,
      "Ġfog": 6178,
      "Ġdear": 6179,
      "Ġhar": 6180,
      "Ġweep": 6181,
      "Ġhopes": 6182,
      "Ġradish": 6183,
      "Ġwriting": 6184,
      "Ġnews": 6185,
      "Ġflapped": 6186,
      "Ġholid": 6187,
      "Ġholiday": 6188,
      "ĠJul": 6189,
      "Ġknob": 6190,
      "Ġig": 6191,
      "ising": 6192,
      "ĠSu": 6193,
      "ãĢĪ": 6194,
      "äº¡": 6195,
      "åŃŁ": 6196,
      "ç¬¬ä¸ĥ": 6197,
      "æ²Ĵ": 6198,
      "åºķ": 6199,
      "èĩ£": 6200,
      "æķĮ": 6201,
      "è¯į": 6202,
      "åĲįä¸º": 6203,
      "åĲįéĢ²å£«": 6204,
      "åĲįèĪīäºº": 6205,
      "æ´ĭ": 6206,
      "Ġsteam": 6207,
      "ç´ħ": 6208,
      "ĠKate": 6209,
      "æķĻèĤ²": 6210,
      "èĬĤ": 6211,
      "åĨĽåĪĨåĮºåı¸ä»¤åĳĺ": 6212,
      "éĵģè·¯": 6213,
      "ĠInstead": 6214,
      "Ġigloo": 6215,
      "Qu": 6216,
      "Ġmarried": 6217,
      "Ġrelaxed": 6218,
      "lass": 6219,
      "ĠHenry": 6220,
      "Ġjunk": 6221,
      "achel": 6222,
      "Ġbother": 6223,
      "Ġspear": 6224,
      "Ġquack": 6225,
      "Ġgreedy": 6226,
      "Ġteleph": 6227,
      "Ġinvestigate": 6228,
      "tress": 6229,
      "Ġcell": 6230,
      "ĠBaby": 6231,
      "Ġpuddles": 6232,
      "Ġstraight": 6233,
      "ives": 6234,
      "Ġmattress": 6235,
      "chie": 6236,
      "Ġshrugged": 6237,
      "tain": 6238,
      "Thanks": 6239,
      "Ġparent": 6240,
      "Ġregret": 6241,
      "Ġattach": 6242,
      "Ġcrawling": 6243,
      "Ġberry": 6244,
      "Ġfought": 6245,
      "åĽ¾": 6246,
      "å¾¡": 6247,
      "æĪ·": 6248,
      "å·®": 6249,
      "è¡Ķ": 6250,
      "èĪĪ": 6251,
      "ç»§": 6252,
      "è·¨": 6253,
      "ç¾½": 6254,
      "è½ī": 6255,
      "éłŃ": 6256,
      "æºª": 6257,
      "ssible": 6258,
      "Ġmint": 6259,
      "Ġcomplain": 6260,
      "Ġtelephone": 6261,
      "spap": 6262,
      "anges": 6263,
      "Wait": 6264,
      "ring": 6265,
      "Ġwags": 6266,
      "Ġgym": 6267,
      "web": 6268,
      "Ġnewspap": 6269,
      "Ġoak": 6270,
      "Ġthumb": 6271,
      "Ġcalls": 6272,
      "Ġpine": 6273,
      "Ġeaten": 6274,
      "ĠCharlie": 6275,
      "Ġrequ": 6276,
      "Ġpear": 6277,
      "Ġentered": 6278,
      "Ġceiling": 6279,
      "center": 6280,
      "é³": 6281,
      "Ġ198": 6282,
      "imi": 6283,
      "æľ±": 6284,
      "å°ļ": 6285,
      "éĥ¨éĥİä¸Ń": 6286,
      "ç§ĺ": 6287,
      "æī¿": 6288,
      "è¾Ľ": 6289,
      "è·¯ç·ļ": 6290,
      "å¿ł": 6291,
      "1935": 6292,
      "1937": 6293,
      "1948": 6294,
      "ãĢįï¼Į": 6295,
      "2015": 6296,
      "å²¸": 6297,
      "æĹıèĩªæ²»": 6298,
      "æħ¶": 6299,
      "æ¶Ī": 6300,
      "è«¾": 6301,
      "æĹħå®¢éĲµéģĵ": 6302,
      "Ġfreezer": 6303,
      "Ġwigg": 6304,
      "Ġagree": 6305,
      "bbie": 6306,
      "ĠTrue": 6307,
      "Ġcob": 6308,
      "Ġcrossed": 6309,
      "Ġscolded": 6310,
      "sters": 6311,
      "Sammy": 6312,
      "Ġblackboard": 6313,
      "Ġapart": 6314,
      "Ġbattery": 6315,
      "Ġsizes": 6316,
      "ores": 6317,
      "Ġopera": 6318,
      "Ġblueberries": 6319,
      "ety": 6320,
      "Ġamazement": 6321,
      "Ġfollows": 6322,
      "Ġpinch": 6323,
      "eve": 6324,
      "Ġpur": 6325,
      "Ġyield": 6326,
      "Ġmusician": 6327,
      "Ġchoice": 6328,
      "sit": 6329,
      "Ġtucked": 6330,
      "Ġunif": 6331,
      "amb": 6332,
      "äº¦": 6333,
      "åĨĽç¬¬äºĮ": 6334,
      "ĠDanny": 6335,
      "çĶ¢": 6336,
      "åĬī": 6337,
      "åİĤ": 6338,
      "Ġraz": 6339,
      "è¿Ķ": 6340,
      "æĿ°": 6341,
      "éģŃ": 6342,
      "Ġbelow": 6343,
      "æĬĢ": 6344,
      "æĬĬ": 6345,
      "ç´į": 6346,
      "åł¡": 6347,
      "æľĥè©¦": 6348,
      "Ġveil": 6349,
      "æ©ĭ": 6350,
      "åħīç»ª": 6351,
      "å®ĮæĪĲ": 6352,
      "æĿ±æĹ¥æľ¬æĹħå®¢éĲµéģĵ": 6353,
      "ä¸Ńåįİäººæ°ĳåħ±åĴĮåĽ½æĪĲç«ĭåĲİ": 6354,
      "å©ļ": 6355,
      "å±Ĭåħ¨åĽ½äººå¤§ä»£è¡¨": 6356,
      "èĸ©": 6357,
      "è£½ä½ľ": 6358,
      "Ġrake": 6359,
      "Ġknown": 6360,
      "Ġhelper": 6361,
      "Ġswamp": 6362,
      "Ġrecomm": 6363,
      "Ġuniform": 6364,
      "house": 6365,
      "Ġward": 6366,
      "Ġserve": 6367,
      "Ġwhisper": 6368,
      "Ġrecommend": 6369,
      "ib": 6370,
      "Ġvroom": 6371,
      "Ġcastles": 6372,
      "lasses": 6373,
      "Ġsuff": 6374,
      "Ġstro": 6375,
      "ĠRosie": 6376,
      "Ġsunglasses": 6377,
      "Ġrequest": 6378,
      "Ġwardrobe": 6379,
      "Is": 6380,
      "Ġappro": 6381,
      "Ġimprove": 6382,
      "hic": 6383,
      "Ġcared": 6384,
      "ĠJames": 6385,
      "Ġquietly": 6386,
      "fortunately": 6387,
      "vision": 6388,
      "Ġvehic": 6389,
      "Ġshrink": 6390,
      "uckily": 6391,
      "ction": 6392,
      "Ġkisses": 6393,
      "omes": 6394,
      "Ġcliff": 6395,
      "åįł": 6396,
      "åĲ´": 6397,
      "1915": 6398,
      "æľĪåĪĿ": 6399,
      "æĶ¿åįı": 6400,
      "Ġbookcase": 6401,
      "ä¼Ĺ": 6402,
      "åĩĨ": 6403,
      "åĩºä»»": 6404,
      "å®īäºº": 6405,
      "åĢĳ": 6406,
      "åŃ¸çĶŁ": 6407,
      "èī¯": 6408,
      "éłĺ": 6409,
      "æŃ£å¼ı": 6410,
      "çįİ": 6411,
      "çľģåĨĽåĮºåī¯åı¸ä»¤åĳĺ": 6412,
      "å´İ": 6413,
      "å·´å£«ç«Ļ": 6414,
      "çºªå¿µ": 6415,
      "æĵĶä»»": 6416,
      "atie": 6417,
      "Ġrooms": 6418,
      "Ġchess": 6419,
      "Ġsqueezed": 6420,
      "Ġscattered": 6421,
      "chor": 6422,
      "Ġbeef": 6423,
      "Ġtelevision": 6424,
      "ups": 6425,
      "Ġtrusted": 6426,
      "Ġfile": 6427,
      "ĠBun": 6428,
      "Ġmakeup": 6429,
      "Ġsurprises": 6430,
      "Ġdemand": 6431,
      "Ġmustache": 6432,
      "Ġcobweb": 6433,
      "Ġmatches": 6434,
      "Ġeasily": 6435,
      "Ġfuel": 6436,
      "Ġsqueeze": 6437,
      "Ġsplashing": 6438,
      "Ġmagazine": 6439,
      "Ġpit": 6440,
      "Ġcaring": 6441,
      "Ġyoga": 6442,
      "Ann": 6443,
      "}-": 6444,
      "é¹": 6445,
      "Ġtug": 6446,
      "ĠTed": 6447,
      "å¹´è¢«": 6448,
      "è¡Ĺ": 6449,
      "æĿŁ": 6450,
      "åī¯ä½¿": 6451,
      "åī¯æĶ¿å§Ķ": 6452,
      "æĪĲåĵ¡": 6453,
      "æ´ª": 6454,
      "å²Ľ": 6455,
      "å¸ĥæĶ¿": 6456,
      "çĽ¸éĹľ": 6457,
      "è¿Ľè¡Į": 6458,
      "åĸĦ": 6459,
      "åİĨåı²": 6460,
      "èĴĻ": 6461,
      "ä¸°æ´Ľ": 6462,
      "Ġskills": 6463,
      "oral": 6464,
      "Ġairpl": 6465,
      "Ġgrowled": 6466,
      "Ġwandered": 6467,
      "ĠJess": 6468,
      "Ġgrill": 6469,
      "Ġnewspaper": 6470,
      "Ġrazor": 6471,
      "Sh": 6472,
      "cakes": 6473,
      "ived": 6474,
      "Ġtoes": 6475,
      "asis": 6476,
      "Ġringing": 6477,
      "Ġrefre": 6478,
      "Ġperfu": 6479,
      "'.": 6480,
      "vet": 6481,
      "ĠNext": 6482,
      "Ġreaches": 6483,
      "Ġclaws": 6484,
      "Ġincre": 6485,
      "Ġbalan": 6486,
      "Ġinfant": 6487,
      "Ġsigh": 6488,
      "Ġisn": 6489,
      "ĠRe": 6490,
      "Ġsafety": 6491,
      "Ġtong": 6492,
      "Ġoasis": 6493,
      "Ġplates": 6494,
      "äº¨": 6495,
      "Ġspade": 6496,
      "åĨĽåĨĽéķ¿": 6497,
      "istol": 6498,
      "è§Ĩ": 6499,
      "æ²¡": 6500,
      "2010": 6501,
      "ä¼¤": 6502,
      "å»·": 6503,
      "æ³ģ": 6504,
      "é¢¨": 6505,
      "ä½ľæĪĺ": 6506,
      "å¿«": 6507,
      "è¦ª": 6508,
      "åĲĮå¹´": 6509,
      "åı¯èĥ½": 6510,
      "åħĥå¹´": 6511,
      "åİ»ä¸ĸ": 6512,
      "ç¬¬äºĮæ¬¡åĽ½åħ±åĨħæĪĺ": 6513,
      "Ġvideo": 6514,
      "èĩºä¸Ńå¸Ĥ": 6515,
      "Ġperfume": 6516,
      "izard": 6517,
      "Ġyucky": 6518,
      "Ġanchor": 6519,
      "Ġraise": 6520,
      "Ġkeeping": 6521,
      "ggy": 6522,
      "Mandy": 6523,
      "bor": 6524,
      "Ġwaste": 6525,
      "Ġcandles": 6526,
      "Ġtut": 6527,
      "Ġaut": 6528,
      "Ġbill": 6529,
      "ĠHelp": 6530,
      "ĠCo": 6531,
      "Ġbravely": 6532,
      "Ġexperience": 6533,
      "lier": 6534,
      "Ġlumber": 6535,
      "ari": 6536,
      "Ġunderstanding": 6537,
      "icing": 6538,
      "Ġsettled": 6539,
      "Did": 6540,
      "lend": 6541,
      "Ġdelay": 6542,
      "ĠWho": 6543,
      "Ġcoal": 6544,
      "Ġhurting": 6545,
      "Ġchairs": 6546,
      "31": 6547,
      "km": 6548,
      "Ġpistol": 6549,
      "å¹´èĩ³": 6550,
      "åį¿": 6551,
      "ä¸ŃçļĦ": 6552,
      "Ġprop": 6553,
      "Ġkneel": 6554,
      "åĬĥ": 6555,
      "åĬį": 6556,
      "è¿ª": 6557,
      "Ġletting": 6558,
      "éĽ²": 6559,
      "å¸Īå¸Īéķ¿": 6560,
      "100": 6561,
      "åİŁå§ĭ": 6562,
      "ç¶²": 6563,
      "æĹħéķ¿": 6564,
      "Ġcoats": 6565,
      "Ġsupply": 6566,
      "çĻ½å±±": 6567,
      "æŃĮæĽ²": 6568,
      "æł¹æį®": 6569,
      "æŃ·åı²": 6570,
      "æ¹ĸåįĹçľģ": 6571,
      "Will": 6572,
      "ero": 6573,
      "Ġimmediately": 6574,
      "Ġsparkling": 6575,
      "Peter": 6576,
      "anna": 6577,
      "amber": 6578,
      "Ġrail": 6579,
      "Ġmoments": 6580,
      "rm": 6581,
      "Ġjewelry": 6582,
      "ĠOnce": 6583,
      "Ġbeamed": 6584,
      "Ġlicks": 6585,
      "Ġcabinet": 6586,
      "Ġcalend": 6587,
      "Ġcrash": 6588,
      "ĠClara": 6589,
      "Ġcalendar": 6590,
      "Ġbean": 6591,
      "Ġboot": 6592,
      "Ġlaught": 6593,
      "Ġapron": 6594,
      "Ġtherm": 6595,
      "Ġhills": 6596,
      "Ġsparkle": 6597,
      "Ġsub": 6598,
      "Ġdried": 6599,
      "Ġrise": 6600,
      "ä¸¾": 6601,
      "åħ¸": 6602,
      "åĨĽå§Ķ": 6603,
      "åĨĽè¡Ķ": 6604,
      "å®ĭ": 6605,
      "å¾Ĳ": 6606,
      "ä½Ī": 6607,
      "å¼º": 6608,
      "æĹ¥çĶŁ": 6609,
      "Ġfastest": 6610,
      "åºĦ": 6611,
      "éĽĦ": 6612,
      "æķĳ": 6613,
      "æ±º": 6614,
      "çĶ±äºİ": 6615,
      "éļ¶": 6616,
      "éļĨ": 6617,
      "çŃĳ": 6618,
      "çµĤ": 6619,
      "æ¯ķ": 6620,
      "è¶³": 6621,
      "çŁ¥åºľ": 6622,
      "æ·±": 6623,
      "æ´»åĬ¨": 6624,
      "å±Ĩåħ¨åľĭ": 6625,
      "æĶ¿åįĶå§Ķåĵ¡": 6626,
      "raged": 6627,
      "Ġblouse": 6628,
      "Ġdire": 6629,
      "Ġspending": 6630,
      "Ġlemonade": 6631,
      "Ġdestination": 6632,
      "Ġlaughter": 6633,
      "alley": 6634,
      "Ġwarmth": 6635,
      "Ġenter": 6636,
      "Ġweap": 6637,
      "Ġvanished": 6638,
      "Ġpraised": 6639,
      "ah": 6640,
      "Ġport": 6641,
      "Ġbeans": 6642,
      "Ġcherry": 6643,
      "Ġvac": 6644,
      "Ġhardly": 6645,
      "Ġsaving": 6646,
      "Ġfallen": 6647,
      "Welcome": 6648,
      "¾æİ¥": 6649,
      "æĳ": 6650,
      "èĶ": 6651,
      "Ġwine": 6652,
      "ĠIts": 6653,
      "ä»½": 6654,
      "äººåı£": 6655,
      "è¡¥": 6656,
      "éĢģ": 6657,
      "Ġdifferen": 6658,
      "Ġfollowing": 6659,
      "è¯Ŀ": 6660,
      "çµ¦": 6661,
      "ä»ĸçļĦ": 6662,
      "é»ŀ": 6663,
      "2011": 6664,
      "æĶ¿æ²»éĥ¨åī¯ä¸»ä»»": 6665,
      "éĵ¾æİ¥": 6666,
      "çĳª": 6667,
      "çĩķ": 6668,
      "çĥĪ": 6669,
      "Ġflutter": 6670,
      "Ġdestroyed": 6671,
      "çħ§": 6672,
      "ãĢĭãĢģãĢĬ": 6673,
      "æ²Ĵæľī": 6674,
      "æ¯ķä¸ļ": 6675,
      "Ġquiz": 6676,
      "Ġcaptain": 6677,
      "Ġstyle": 6678,
      "Ġlotion": 6679,
      "Ġsnap": 6680,
      "Ġsnapped": 6681,
      "Ġspots": 6682,
      "Ġtaller": 6683,
      "Ġbathe": 6684,
      "Ġthermomet": 6685,
      "'ve": 6686,
      "Ġscooped": 6687,
      "Ġearlier": 6688,
      "Ġcuddled": 6689,
      "Jen": 6690,
      "asp": 6691,
      "Ġpride": 6692,
      "Ġinstr": 6693,
      "Ġmissile": 6694,
      "omeday": 6695,
      "Ġribbon": 6696,
      "Ġtornado": 6697,
      "sity": 6698,
      "Ġremove": 6699,
      "Ġdisappear": 6700,
      "Ġhearts": 6701,
      "Ġharbor": 6702,
      "aped": 6703,
      "Ġburied": 6704,
      "Ġwaffle": 6705,
      "Ġsandcastle": 6706,
      "Ġreverse": 6707,
      "ĠEach": 6708,
      "ucture": 6709,
      "-{": 6710,
      "ä»Ģ": 6711,
      "å¾½": 6712,
      "Ġstructure": 6713,
      "å¤§éĺŁ": 6714,
      "éĻ¸": 6715,
      "Ġideas": 6716,
      "ç§ĭ": 6717,
      "éĿł": 6718,
      "Ġdresses": 6719,
      "è¨±": 6720,
      "åľ°åįĢ": 6721,
      "å®¶åºŃ": 6722,
      "ä¸ĬçļĦ": 6723,
      "çĪŃ": 6724,
      "ä¾¯": 6725,
      "ç¥¥": 6726,
      "ĠKing": 6727,
      "2018": 6728,
      "çĻ¼è¡Į": 6729,
      "çŁ¥åİ¿": 6730,
      "å¸¸å§Ķ": 6731,
      "èĲ¥éķ¿": 6732,
      "éģĭåĭķ": 6733,
      "å¤ĸéĥ¨éĵ¾æİ¥": 6734,
      "Ġshooting": 6735,
      "ival": 6736,
      "Ġstrawberries": 6737,
      "æĸĽå¾ĭä¸°æ´Ľ": 6738,
      "å¾¡åı²": 6739,
      "Ġpoked": 6740,
      "Ġfloat": 6741,
      "Ġpuzzles": 6742,
      "Ġmass": 6743,
      "ission": 6744,
      "Mark": 6745,
      "sing": 6746,
      "Ġtide": 6747,
      "Ġchamber": 6748,
      "Ġremain": 6749,
      "Ġignore": 6750,
      "Ġthermometer": 6751,
      "With": 6752,
      "ium": 6753,
      "Ġlic": 6754,
      "ĠFreddy": 6755,
      "Ġmuffin": 6756,
      "2021": 6757,
      "Ġmailman": 6758,
      "Ġinsisted": 6759,
      "å«": 6760,
      "é¬": 6761,
      "Ġblood": 6762,
      "ä¸ĢåĢĭ": 6763,
      "çºĮ": 6764,
      "åīĩ": 6765,
      "çīĽ": 6766,
      "ç§ģ": 6767,
      "æĺ¯åľ¨": 6768,
      "Ġcrunch": 6769,
      "ä»¥ä¸ĭ": 6770,
      "çĭĢ": 6771,
      "èĥŀ": 6772,
      "æł¡åıĭ": 6773,
      "æĢ»çĿ£": 6774,
      "èª¿": 6775,
      "çį»": 6776,
      "å¹¿ä¸ľ": 6777,
      "çľģåĨĽåĮºåı¸ä»¤åĳĺ": 6778,
      "è§ĢæĶ¿": 6779,
      "ä¸Ńå¼ıåĺīéĿĸåįģä¸Ģå¹´": 6780,
      "iction": 6781,
      "æŃ²ä¸Ńå¼ıåĺīéĿĸåįģä¸Ģå¹´": 6782,
      "éŁĵåľĭ": 6783,
      "ä¸īçº§åħ«ä¸Ģåĭĭç«łèİ·å¾ĹèĢħ": 6784,
      "osed": 6785,
      "Ġpalm": 6786,
      "omob": 6787,
      "Ġshot": 6788,
      "Ġtrade": 6789,
      "Ġsomeday": 6790,
      "Ġvalley": 6791,
      "ĠDan": 6792,
      "ĠSpike": 6793,
      "Ġautomob": 6794,
      "Ġfiref": 6795,
      "Ġhits": 6796,
      "ĠBefore": 6797,
      "act": 6798,
      "Ġbegged": 6799,
      "Ġmyself": 6800,
      "Ġyawned": 6801,
      "Ġstomach": 6802,
      "Ġpages": 6803,
      "Ġrabbits": 6804,
      "ampoo": 6805,
      "Ġpermission": 6806,
      "Ġtutor": 6807,
      "Ġworms": 6808,
      "All": 6809,
      "Ġhomes": 6810,
      "ops": 6811,
      "inky": 6812,
      "Ġoranges": 6813,
      "Ġinvite": 6814,
      "Ġjewels": 6815,
      "Ġitem": 6816,
      "Ġalright": 6817,
      "Ġadmir": 6818,
      "riger": 6819,
      "ĊĠ": 6820,
      "Ġachie": 6821,
      "Ġgear": 6822,
      "htray": 6823,
      "Ġashtray": 6824,
      "åĽ½å®¶": 6825,
      "åľ£": 6826,
      "å¤´": 6827,
      "å¾©": 6828,
      "æĿŃ": 6829,
      "ç»Ī": 6830,
      "Ġclimbs": 6831,
      "åįĹäºļ": 6832,
      "è®Ń": 6833,
      "è´Ł": 6834,
      "ç·ļçļĦ": 6835,
      "éĲĺ": 6836,
      "æĮĩå¯¼åĳĺ": 6837,
      "é£Ľ": 6838,
      "èŃ¦å¯Ł": 6839,
      "Ġpanic": 6840,
      "çĲĥåĵ¡": 6841,
      "1929": 6842,
      "éĴ±": 6843,
      "ç·¨åĬĩ": 6844,
      "Ġrefriger": 6845,
      "æĽ¼èģ¯": 6846,
      "ĠSnowy": 6847,
      "Ġbleed": 6848,
      "Ġtongue": 6849,
      "Ġrefrigerator": 6850,
      "Ok": 6851,
      "Ġbirdc": 6852,
      "Ġpoison": 6853,
      "Ġgifts": 6854,
      "ictionary": 6855,
      "Fl": 6856,
      "rise": 6857,
      "Ġwizard": 6858,
      "Ġcub": 6859,
      "Ġfloated": 6860,
      "Ġbirdcage": 6861,
      "ĠMiss": 6862,
      "ĠRachel": 6863,
      "ĠBuzz": 6864,
      "Lisa": 6865,
      "Ġdictionary": 6866,
      "Ġsneeze": 6867,
      "Ġreceived": 6868,
      "Ġwashing": 6869,
      "ĠHave": 6870,
      "Ġsocks": 6871,
      "Ġteaching": 6872,
      "Ġappreciate": 6873,
      "Ġlugg": 6874,
      "ishing": 6875,
      "Ġrestore": 6876,
      "Ġlicense": 6877,
      "Yuck": 6878,
      "Ġneighborhood": 6879,
      "Ġexercise": 6880,
      "Ġluggage": 6881,
      "Ġ200": 6882,
      "Ġbookshe": 6883,
      "Ġsolved": 6884,
      "Ġbumped": 6885,
      "Ġinclud": 6886,
      "âĸ": 6887,
      "åª": 6888,
      "Ġshampoo": 6889,
      "å¹´ä»£": 6890,
      "ä»ĭ": 6891,
      "åĪĽ": 6892,
      "åī¿": 6893,
      "å¥¥": 6894,
      "Ġfloating": 6895,
      "çĶ±æĸ¼": 6896,
      "æĢ¥": 6897,
      "ãĢĭï¼Ī": 6898,
      "å®īå¾½": 6899,
      "åĲĮæĻĤ": 6900,
      "è¡¨ç¤º": 6901,
      "é»¨": 6902,
      "ä¸Ģçº§çĭ¬ç«ĭèĩªçĶ±": 6903,
      "ç¦®": 6904,
      "è²¬": 6905,
      "è²Ŀ": 6906,
      "çį¨": 6907,
      "è¿Ľåħ¥": 6908,
      "1927": 6909,
      "éª¨": 6910,
      "å»¶å®ī": 6911,
      "å±Ĩåħ¨åľĭæĶ¿åįĶå§Ķåĵ¡": 6912,
      "40": 6913,
      "Ġprepare": 6914,
      "ĠPeople": 6915,
      "Ġprovide": 6916,
      "Ġfest": 6917,
      "Ġnone": 6918,
      "osity": 6919,
      "Ġplanes": 6920,
      "Ġpatiently": 6921,
      "Ġcollecting": 6922,
      "Ġcollection": 6923,
      "Ġweeks": 6924,
      "Ġmodel": 6925,
      "Ġornament": 6926,
      "ĠMay": 6927,
      "Ro": 6928,
      "Ġchores": 6929,
      "Ġunite": 6930,
      "Ġdiscuss": 6931,
      "eration": 6932,
      "ĠMimi": 6933,
      "Ġelephants": 6934,
      "Ġdare": 6935,
      "uture": 6936,
      "Ġleak": 6937,
      "asc": 6938,
      "Ġbrain": 6939,
      "Ġexamine": 6940,
      "Ġmall": 6941,
      "Ġplays": 6942,
      "Ġmeasured": 6943,
      "çĢ": 6944,
      "Ġwhip": 6945,
      "å¾Ħ": 6946,
      "è§ģ": 6947,
      "antly": 6948,
      "ĠPenny": 6949,
      "åī¯ä¸»å¸Ń": 6950,
      "å½ķ": 6951,
      "èµ«": 6952,
      "åĽ¢åĽ¢éķ¿": 6953,
      "è°·": 6954,
      "èĥľ": 6955,
      "åĢ¼": 6956,
      "åĵ¡å¤ĸéĥİ": 6957,
      "åħ«ä¸Ģåĭĭç«ł": 6958,
      "æ»ĳ": 6959,
      "åĤĻ": 6960,
      "è«ĸ": 6961,
      "ç¯Ģ": 6962,
      "æ¿Ł": 6963,
      "éĩİæĪĺåĨĽç¬¬": 6964,
      "éĻĦè¿ĳ": 6965,
      "Ġdifference": 6966,
      "Ġparts": 6967,
      "Ġpatterns": 6968,
      "Ġairplane": 6969,
      "Ġstad": 6970,
      "Ġsparkles": 6971,
      "Ġbuzzing": 6972,
      "aspoon": 6973,
      "Ġstadium": 6974,
      "nies": 6975,
      "Ġsimp": 6976,
      "Ġjogging": 6977,
      "Ġstruggling": 6978,
      "Ġapproached": 6979,
      "Ġvacation": 6980,
      "Ġdigg": 6981,
      "Ġteaspoon": 6982,
      "Ġdrain": 6983,
      "Ġguy": 6984,
      "Ġbookshelf": 6985,
      "ĠAb": 6986,
      "Ġscore": 6987,
      "Ġsigns": 6988,
      "Ġlabel": 6989,
      "Ġpunish": 6990,
      "Ġdigging": 6991,
      "Ġtore": 6992,
      "ĠIs": 6993,
      "Ġranch": 6994,
      "ĠFo": 6995,
      "Ġsetting": 6996,
      "son": 6997,
      "Ġscratch": 6998,
      "Ġbreathe": 6999,
      "iers": 7000,
      "Ġjazz": 7001,
      "Ġglowed": 7002,
      "Ġbelieved": 7003,
      "32": 7004,
      "35": 7005,
      "38": 7006,
      "Ġrhy": 7007,
      "åįĪ": 7008,
      "ĠJoy": 7009,
      "è¡Ľ": 7010,
      "æĿ¨": 7011,
      "å¯Ĩ": 7012,
      "ä¸īå¹´": 7013,
      "è·Ŀ": 7014,
      "æĭĶ": 7015,
      "æĸ°åĽĽ": 7016,
      "åħ¬çĪµ": 7017,
      "çĪĨ": 7018,
      "é¡ŀ": 7019,
      "èªį": 7020,
      "Ġinvit": 7021,
      "åĸľ": 7022,
      "ç»ĦæĪĲ": 7023,
      "èģ¯çĽŁ": 7024,
      "é½¿": 7025,
      "å¹´åĬłåħ¥ä¸ŃåĽ½åħ±äº§åħļ": 7026,
      "Not": 7027,
      "Ġreplace": 7028,
      "Ġsits": 7029,
      "Ġsunrise": 7030,
      "ĠEveryday": 7031,
      "ĠRuby": 7032,
      "fied": 7033,
      "Ġbang": 7034,
      "Ġrush": 7035,
      "Ġequ": 7036,
      "Ġroot": 7037,
      "Ġdeeper": 7038,
      "Ġautomobile": 7039,
      "Ġdaisy": 7040,
      "Ġvehicle": 7041,
      "Ġsport": 7042,
      "ĠPoppy": 7043,
      "Ġthrilled": 7044,
      "ls": 7045,
      "Ġhers": 7046,
      "bey": 7047,
      "Ġduring": 7048,
      "ĠTina": 7049,
      "Ġbeg": 7050,
      "zh": 7051,
      "çļĸ": 7052,
      "çĶº": 7053,
      "è§Ħ": 7054,
      "Ġpulling": 7055,
      "ãĢĭãĢĤ": 7056,
      "é¡¶": 7057,
      "æĢ»éĺŁ": 7058,
      "äºĮçº§çĭ¬ç«ĭèĩªçĶ±åĭĭç«ł": 7059,
      "æ¢ħ": 7060,
      "ç³»åĪĹ": 7061,
      "ĠĊĠĊĠĊĠĊ": 7062,
      "éĨ«": 7063,
      "äº«å¹´": 7064,
      "Ġbillboard": 7065,
      "Ġupstairs": 7066,
      "Ġdecorations": 7067,
      "Ġfestival": 7068,
      "ging": 7069,
      "Ġworse": 7070,
      "emember": 7071,
      "Ġchirping": 7072,
      "ude": 7073,
      "Ġhesit": 7074,
      "Ġgust": 7075,
      "ĠMaggie": 7076,
      "Ġmelted": 7077,
      "These": 7078,
      "Ġgrey": 7079,
      "Ġsupposed": 7080,
      "Ġuniverse": 7081,
      "atch": 7082,
      "Ġshed": 7083,
      "thm": 7084,
      "ĠGood": 7085,
      "Ġencouraged": 7086,
      "Ġfasc": 7087,
      "Ġscur": 7088,
      "Ġmeowed": 7089,
      "Ġdiscovery": 7090,
      "Ġsoldiers": 7091,
      "Ġawe": 7092,
      "Ġsprinkles": 7093,
      "Su": 7094,
      "do": 7095,
      "Johnny": 7096,
      "Ġpaused": 7097,
      "ĠChr": 7098,
      "Ġlect": 7099,
      "eed": 7100,
      "æª": 7101,
      "Ġvel": 7102,
      "Ġbak": 7103,
      "Ġhanger": 7104,
      "igail": 7105,
      "Ġjail": 7106,
      "åĽŃ": 7107,
      "äººçļĦ": 7108,
      "éĢĶ": 7109,
      "éĻħ": 7110,
      "ä¼ı": 7111,
      "ç§¯": 7112,
      "æķĹ": 7113,
      "å¥ı": 7114,
      "æĻī": 7115,
      "åĽĽå¹´": 7116,
      "åĽĽå·Ŀ": 7117,
      "æŀĦ": 7118,
      "æµ·åĨĽ": 7119,
      "Ġbathrobe": 7120,
      "æĽ¾ä»»ä¸ŃåĽ½äººæ°ĳå¿ĹæĦ¿åĨĽ": 7121,
      "é£Ł": 7122,
      "èį·": 7123,
      "çĿĢ": 7124,
      "æļ´": 7125,
      "ç°¡": 7126,
      "ä¸ŃåĽ½æŃ¦æľ¯åįıä¼ļ": 7127,
      "æĮīå¯Łåı¸": 7128,
      "éĥ´å·ŀ": 7129,
      "Ġsew": 7130,
      "Ġvelvet": 7131,
      "Ġgrape": 7132,
      "Ġsausage": 7133,
      "Ġgrinned": 7134,
      "Ġlecture": 7135,
      "Ġnation": 7136,
      "allow": 7137,
      "Ġpotatoes": 7138,
      "Ġwhistling": 7139,
      "Ġburning": 7140,
      "Ġblueberry": 7141,
      "Ġsip": 7142,
      "allen": 7143,
      "ĠLater": 7144,
      "Ġzipped": 7145,
      "Ġbites": 7146,
      "Ġmention": 7147,
      "Ġglo": 7148,
      "Ġweapon": 7149,
      "Ġgain": 7150,
      "Ġsore": 7151,
      "Ġtease": 7152,
      "Ġolive": 7153,
      "60": 7154,
      "ities": 7155,
      "Ġlaid": 7156,
      "Ġcrashed": 7157,
      "Ġgrocery": 7158,
      "!'": 7159,
      "æ«": 7160,
      "Ġfuture": 7161,
      "ä¸¹": 7162,
      "Ġspaces": 7163,
      "éĥ¡": 7164,
      "æ²¿": 7165,
      "æĽĨ": 7166,
      "å¯§": 7167,
      "æİ§": 7168,
      "èµ£": 7169,
      "èµ¤": 7170,
      "èµĽ": 7171,
      "çľ¾": 7172,
      "çľĭ": 7173,
      "ä½ľä¸º": 7174,
      "1950": 7175,
      "ä¾ĭ": 7176,
      "çŃĸ": 7177,
      "ç´¢": 7178,
      "æĸĩçį»": 7179,
      "é¢Ĩå¯¼": 7180,
      "çº¢åĽĽ": 7181,
      "Ġattached": 7182,
      "æ½ĺ": 7183,
      "èªī": 7184,
      "è²»": 7185,
      "æīĢæľī": 7186,
      "Ġwhistled": 7187,
      "çĥŃ": 7188,
      "ç¿°": 7189,
      "å³¶": 7190,
      "åĶ®ç¥¨": 7191,
      "éİ®": 7192,
      "å¸ĥæĶ¿ä½¿": 7193,
      "æ²¡æľī": 7194,
      "Ġfascin": 7195,
      "oved": 7196,
      "Ġchallen": 7197,
      "Ġwarning": 7198,
      "Ġproblems": 7199,
      "Ġmassage": 7200,
      "fy": 7201,
      "Jake": 7202,
      "Ġtoe": 7203,
      "Ġemer": 7204,
      "Ġremained": 7205,
      "Before": 7206,
      "Ġtwisted": 7207,
      "Ġcrunchy": 7208,
      "Ġeff": 7209,
      "umble": 7210,
      "Ġflav": 7211,
      "Ġdecision": 7212,
      "Ġwherever": 7213,
      "Ġactually": 7214,
      "Ġmarbles": 7215,
      "Ġrhythm": 7216,
      "Ġlick": 7217,
      "Ġfixing": 7218,
      "Ġurge": 7219,
      "Ġlily": 7220,
      "Ġoat": 7221,
      "Ġflood": 7222,
      "Would": 7223,
      "Ġwre": 7224,
      "ĠMat": 7225,
      "Ġbuildings": 7226,
      "ĠZoe": 7227,
      "Ġbricks": 7228,
      "cles": 7229,
      "åĲı": 7230,
      "åĪ«": 7231,
      "éĥĳ": 7232,
      "æĪ²": 7233,
      "ä¹Ļ": 7234,
      "Ġsunlight": 7235,
      "Ġwatered": 7236,
      "æŃĲ": 7237,
      "åıĤæĶ¿": 7238,
      "æĿ¡": 7239,
      "ä¼Ĳ": 7240,
      "èĪĬ": 7241,
      "èĪŀ": 7242,
      "å½Ĵ": 7243,
      "è¯ķ": 7244,
      "Ġmonsters": 7245,
      "è¾²": 7246,
      "1938": 7247,
      "è¡¨æ¼Ķ": 7248,
      "æľŁéĸĵ": 7249,
      "2014": 7250,
      "éłĲ": 7251,
      "è²ł": 7252,
      "Ġrespons": 7253,
      "ä¿Ŀåį«": 7254,
      "æ¢ģ": 7255,
      "æĬĹæĪĺ": 7256,
      "å¹¿è¥¿": 7257,
      "èħ³": 7258,
      "éĩİæĪĺåĨĽ": 7259,
      "ases": 7260,
      "ĠLuna": 7261,
      "Ġracing": 7262,
      "Ġsliding": 7263,
      "Ġhurric": 7264,
      "Ġordered": 7265,
      "Ġobserve": 7266,
      "mother": 7267,
      "xy": 7268,
      "Ex": 7269,
      "Ġchir": 7270,
      "Ġoperation": 7271,
      "ĠChirp": 7272,
      "Ġsuffer": 7273,
      "bers": 7274,
      "Ġgirls": 7275,
      "Emily": 7276,
      "Ġsurrounded": 7277,
      "Mmm": 7278,
      "Ġmitten": 7279,
      "Ġlip": 7280,
      "bbled": 7281,
      "ĠOllie": 7282,
      "Ġprayed": 7283,
      "Ġsubway": 7284,
      "Ġchirped": 7285,
      "Ġrust": 7286,
      "Ġsatis": 7287,
      "Ġuniversity": 7288,
      "Ġmanage": 7289,
      "Ġskipping": 7290,
      "Ġwatches": 7291,
      "Ġmarching": 7292,
      "Ġcurled": 7293,
      "Ġx": 7294,
      "ĠMe": 7295,
      "è§Ĥ": 7296,
      "åĪ¤": 7297,
      "åĪ¥": 7298,
      "ï¼īï¼Ľ": 7299,
      "ä¹¾": 7300,
      "Ġcomfy": 7301,
      "åī§": 7302,
      "éĻĲ": 7303,
      "2022": 7304,
      "åįģå¹´": 7305,
      "åī¯æĶ¿æ²»å§Ķåĳĺ": 7306,
      "Ġworks": 7307,
      "è®¸": 7308,
      "å½Ń": 7309,
      "èµ´": 7310,
      "è¯Ħ": 7311,
      "Ġdrinking": 7312,
      "çİ©": 7313,
      "ï¼ļâĢľ": 7314,
      "ä¹ĭå¾Į": 7315,
      "å·ŀäºº": 7316,
      "1936": 7317,
      "èĲ¨": 7318,
      "å²©": 7319,
      "æ¼«": 7320,
      "éĢļè¿ĩ": 7321,
      "æ¡ĳ": 7322,
      "å°Ķå¾·": 7323,
      "ä¸Ģçº§è§£æĶ¾åĭĭç«ł": 7324,
      "çĻ¼çĶŁ": 7325,
      "éĦ°": 7326,
      "å¯ŁåĨĢ": 7327,
      "åħ¼åıĤè°ĭéķ¿": 7328,
      "æľĢå¾Į": 7329,
      "Ġseats": 7330,
      "æ£Ĵ": 7331,
      "åŁºåľ°": 7332,
      "Ġprice": 7333,
      "ç¼ĸä¸º": 7334,
      "èĮĥ": 7335,
      "éºĹ": 7336,
      "è£ħçĶ²": 7337,
      "é¤¨": 7338,
      "Ġfireworks": 7339,
      "å¹´åıĤåĬłä¸ŃåĽ½å·¥åĨľçº¢åĨĽ": 7340,
      "æĬĹæĹ¥æĪĺäºīæĹ¶æľŁ": 7341,
      "Ġhate": 7342,
      "Ġconf": 7343,
      "Ġmemory": 7344,
      "Ġhurricane": 7345,
      "!\",": 7346,
      "Ġslice": 7347,
      "Ġsafari": 7348,
      "ĠSteve": 7349,
      "Ġreceive": 7350,
      "Ouch": 7351,
      "Ġwid": 7352,
      "Ġbes": 7353,
      "Ġpeanuts": 7354,
      "Ġmeasuring": 7355,
      "ĠY": 7356,
      "Ġtremb": 7357,
      "Ġpigs": 7358,
      "Ġtracks": 7359,
      "ĠBetsy": 7360,
      "Ġrefreshed": 7361,
      "Ġsings": 7362,
      "Ġcakes": 7363,
      "ĠMilly": 7364,
      "Ġspit": 7365,
      "Ġstrang": 7366,
      "Ġcontain": 7367,
      "Ġinvitation": 7368,
      "ik": 7369,
      "Ġbrus": 7370,
      "Ġraised": 7371,
      "Ġlands": 7372,
      "\",": 7373,
      "hest": 7374,
      "Ġlets": 7375,
      "Ġkeeper": 7376,
      "Ġchewed": 7377,
      "Ġrecognized": 7378,
      "Paul": 7379,
      "Ġmister": 7380,
      "å¹´çļĦ": 7381,
      "å¹´åº¦": 7382,
      "Ġbrings": 7383,
      "å°º": 7384,
      "äººæ¬¡": 7385,
      "åº«": 7386,
      "æĿĥ": 7387,
      "éģĩ": 7388,
      "åľĭåŃĲ": 7389,
      "çĤºäºĨ": 7390,
      "èģ²": 7391,
      "æĮº": 7392,
      "Ġhated": 7393,
      "æľ¬ä½ľ": 7394,
      "1939": 7395,
      "ä¸ĭè¾ĸ": 7396,
      "æĸ¯çī¹": 7397,
      "è©ķ": 7398,
      "ä¸įåĲĮ": 7399,
      "é«ĺéĢŁ": 7400,
      "1944": 7401,
      "åĿļ": 7402,
      "é¡º": 7403,
      "æł¡éķ¿": 7404,
      "è£Ŀ": 7405,
      "188": 7406,
      "éĩįåĬĽ": 7407,
      "çį²å¾Ĺ": 7408,
      "ä¸Ģçº§çĭ¬ç«ĭèĩªçĶ±åĭĭç«łèİ·å¾ĹèĢħ": 7409,
      "walk": 7410,
      "Ġfed": 7411,
      "utty": 7412,
      "Ġplanted": 7413,
      "Ġbuckle": 7414,
      "Ġcircus": 7415,
      "Bl": 7416,
      "Ġevent": 7417,
      "Ġearthqu": 7418,
      "Ġheat": 7419,
      "cious": 7420,
      "Ġhappiest": 7421,
      "Ġpossible": 7422,
      "Ġours": 7423,
      "Ġcontinue": 7424,
      "Ġdrinks": 7425,
      "ays": 7426,
      "Ġremem": 7427,
      "Ġbeside": 7428,
      "Ġpitch": 7429,
      "ĠLiz": 7430,
      "ĠSomeone": 7431,
      "Ġremembers": 7432,
      "é¥": 7433,
      "åħħ": 7434,
      "åĨĪ": 7435,
      "YouT": 7436,
      "å¹´ä¸ī": 7437,
      "åĨĽæĶ¿æ²»å§Ķåĳĺ": 7438,
      "å°Ħ": 7439,
      "Ġpoppy": 7440,
      "åĪº": 7441,
      "éĥ¨æĶ¿": 7442,
      "åĭĩ": 7443,
      "åĭĿ": 7444,
      "åºĻ": 7445,
      "åĲįçĤº": 7446,
      "åİ¿çŁ¥åİ¿": 7447,
      "éļ¸": 7448,
      "æ¬¾": 7449,
      "é¦Ĩ": 7450,
      "é«ĺçº§": 7451,
      "æµ·éĺ²": 7452,
      "2017": 7453,
      "é¡¾": 7454,
      "åıĳå±ķ": 7455,
      "éĸĭçĻ¼": 7456,
      "è¦ģæ±Ĥ": 7457,
      "æº«": 7458,
      "åķı": 7459,
      "é£İ": 7460,
      "ä¹Łæĺ¯": 7461,
      "æ»ħ": 7462,
      "èŃ¦åį«": 7463,
      "èŃ¦å¤ĩ": 7464,
      "å¡ŀ": 7465,
      "Ġmountains": 7466,
      "èĺĩ": 7467,
      "è¿ŀéķ¿": 7468,
      "è®¾è®¡": 7469,
      "å®£ä¼ł": 7470,
      "æĻĭå¯ŁåĨĢ": 7471,
      "èĲ¬æĽĨ": 7472,
      "é§Ĳ": 7473,
      "çĨĬ": 7474,
      "é£¾æ¼Ķ": 7475,
      "æĸ¹éĿ¢åĨĽ": 7476,
      "è¯ºå§Ĩ": 7477,
      "è®¤ä¸º": 7478,
      "åįĹäºļè¯Ń": 7479,
      "Ġstrangers": 7480,
      "Ġwanting": 7481,
      "Ġdoggy": 7482,
      "Ġkindly": 7483,
      "Ġturning": 7484,
      "Ġscreams": 7485,
      "Ġbringing": 7486,
      "Ġeasier": 7487,
      "ern": 7488,
      "Ġdisagreed": 7489,
      "Ġeffort": 7490,
      "Ġbeat": 7491,
      "anta": 7492,
      "Ġsneezed": 7493,
      "Ġwaits": 7494,
      "Ġsidewalk": 7495,
      "Ġtomatoes": 7496,
      "Ġonwards": 7497,
      "Ġweren": 7498,
      "ĠFro": 7499,
      "avid": 7500,
      "Ġcompany": 7501,
      "Ġcartoons": 7502,
      "Ġweight": 7503,
      "Ġspill": 7504,
      "ddy": 7505,
      "Ġspoons": 7506,
      "Ġguessed": 7507,
      "Le": 7508,
      "Ġsoared": 7509,
      "ipment": 7510,
      "Ġpaints": 7511,
      "Ġserved": 7512,
      "Ġspaceship": 7513,
      "Moral": 7514,
      "loe": 7515,
      "aded": 7516,
      "Ġescaped": 7517,
      "Ġmineral": 7518,
      "Ġequipment": 7519,
      ".,": 7520,
      "len": 7521,
      "Ġfet": 7522,
      "seek": 7523,
      "Ġpeered": 7524,
      "Ġanytime": 7525,
      "Ġbrand": 7526,
      "2016": 7527,
      "Ready": 7528,
      "62": 7529,
      "cc": 7530,
      "é¸": 7531,
      "å®ĩ": 7532,
      "ï¼īï¼ļ": 7533,
      "ä½³": 7534,
      "åıĤä¸İ": 7535,
      "ä¼¼": 7536,
      "æĭį": 7537,
      "èģŀ": 7538,
      "ï¼ļãĢĮ": 7539,
      "ä¹ĭåĲİ": 7540,
      "æ¬§": 7541,
      "èĥĮ": 7542,
      "æĸ¹åĲĳ": 7543,
      "èī¦": 7544,
      "èīº": 7545,
      "ä¸ĥå¹´": 7546,
      "æķĻæİĪ": 7547,
      "åĪ©äºŀ": 7548,
      "èĬ³": 7549,
      "éħ¸": 7550,
      "åĪĹè»Ĭ": 7551,
      "Ġreminder": 7552,
      "è½¦ç«Ļ": 7553,
      "èĩºçģ£": 7554,
      "éĻķè¥¿": 7555,
      "ç²¾": 7556,
      "èį£èªī": 7557,
      "è¶Ĭå¾Įç·ļè»Ĭç«Ļ": 7558,
      "Ġofficer": 7559,
      "Ġscratched": 7560,
      "Ġstitch": 7561,
      "adly": 7562,
      "Ġcopper": 7563,
      "Ġappear": 7564,
      "Ġselling": 7565,
      "Ġadmiring": 7566,
      "ĠSund": 7567,
      "Ġwarn": 7568,
      "Ġtalent": 7569,
      "Ġprecious": 7570,
      "Ġtwigs": 7571,
      "rin": 7572,
      "oming": 7573,
      "Ġoats": 7574,
      "Ġpetted": 7575,
      "Ġrevealed": 7576,
      "va": 7577,
      "Ġslip": 7578,
      "Ġclearing": 7579,
      "Ġwond": 7580,
      "Ġtrapped": 7581,
      "Ġpillows": 7582,
      "ae": 7583,
      "ĠNot": 7584,
      "Ġperched": 7585,
      "Ġfolded": 7586,
      "Ġsettle": 7587,
      "ĠSharing": 7588,
      "Ġnavy": 7589,
      "Ġmouths": 7590,
      "Ġagreement": 7591,
      "Ġearthquake": 7592,
      "Susie": 7593,
      "Ġhist": 7594,
      "åħį": 7595,
      "âĢ¦": 7596,
      "ä¸ŃåİŁ": 7597,
      "åĪĻ": 7598,
      "å¸ķ": 7599,
      "åºı": 7600,
      "æĿ¾": 7601,
      "Ġbeds": 7602,
      "æķ¬": 7603,
      "åľĭéĲµ": 7604,
      "æĭĽ": 7605,
      "åĪĨéĲĺ": 7606,
      "è¡Įäºº": 7607,
      "éĹĩ": 7608,
      "åĲĮæĹ¶": 7609,
      "çº¢ä¸Ģ": 7610,
      "æ¨Ļ": 7611,
      "åĿ¦": 7612,
      "å²¡": 7613,
      "æŃ¦æ±ī": 7614,
      "è´µ": 7615,
      "å¦¹": 7616,
      "çĻ¼å±ķ": 7617,
      "åıĥåĬł": 7618,
      "ç¼º": 7619,
      "éľį": 7620,
      "å¨ľ": 7621,
      "éŃ¯": 7622,
      "çļĦä¸Ģä¸ª": 7623,
      "åıĥèĢĥæĸĩçį»": 7624,
      "æİĴéķ¿": 7625,
      "è°ĥä»»": 7626,
      "èĴĤ": 7627,
      "å®ľèĺŃ": 7628,
      "ä¸ŃåĽ½äººæ°ĳè§£æĶ¾åĨĽéĻĨåĨĽç¬¬åħŃ": 7629,
      "å£¬è¾°ç§ĳæľĥè©¦": 7630,
      "è£ħçĶ²åħµ": 7631,
      "Ġsecrets": 7632,
      "Ġrepeat": 7633,
      "Ġfirefight": 7634,
      "Ġhistory": 7635,
      "Ġgaz": 7636,
      "Ġmuddy": 7637,
      "ĠFirst": 7638,
      "joyed": 7639,
      "Ġprepared": 7640,
      "Ġpedal": 7641,
      "Ġtour": 7642,
      "Ġexact": 7643,
      "Ġoverjoyed": 7644,
      "Ġrested": 7645,
      "ien": 7646,
      "Ġobey": 7647,
      "ĠKatie": 7648,
      "Ġpets": 7649,
      "Ġzero": 7650,
      "Ġhurried": 7651,
      "Ġleather": 7652,
      "Ġmeow": 7653,
      "Ġflap": 7654,
      "Ġgotten": 7655,
      "Ġshopping": 7656,
      "Ġpracticing": 7657,
      "Ġshadows": 7658,
      "Ġsucceeded": 7659,
      "TA": 7660,
      "Ġlips": 7661,
      "Ġalign": 7662,
      "Ġrang": 7663,
      "Ġeveryday": 7664,
      "Ġpastel": 7665,
      "Ġbones": 7666,
      "amie": 7667,
      "åħ»": 7668,
      "æľ«": 7669,
      "Ġallow": 7670,
      "ä»į": 7671,
      "å®ħ": 7672,
      "å¼Ĺ": 7673,
      "ç¬¬ä¹Ŀ": 7674,
      "å¤§ä¼ļ": 7675,
      "å¤§èĩ£": 7676,
      "è¿½": 7677,
      "éĩĭ": 7678,
      "åįĹåĨĽåĮº": 7679,
      "æĺ¯çĶ±": 7680,
      "è®º": 7681,
      "æĪĲåĬŁ": 7682,
      "Ġswims": 7683,
      "ä¾Ŀ": 7684,
      "ç´ł": 7685,
      "å¤ĸäº¤": 7686,
      "èŃ·": 7687,
      "èī¾": 7688,
      "é¡Į": 7689,
      "åıĥè¦ĭ": 7690,
      "åĭķçķ«": 7691,
      "æ¼Ķåĵ¡": 7692,
      "åħ§éĩİ": 7693,
      "Ġvillag": 7694,
      "æ»¿": 7695,
      "éľ²": 7696,
      "éľĩ": 7697,
      "ä½Ĩæĺ¯": 7698,
      "å¤Ħéķ¿": 7699,
      "åĬĩåł´": 7700,
      "çı¾æĻĤ": 7701,
      "è¾½å®ģ": 7702,
      "éĦīè©¦èĪīäºº": 7703,
      "åıªæľī": 7704,
      "ä¹ĺè»Ĭ": 7705,
      "Ġpermit": 7706,
      "å¯Įå·Ŀ": 7707,
      "éľĢè¦ģ": 7708,
      "é³³": 7709,
      "First": 7710,
      "Ġbowed": 7711,
      "Ġtickets": 7712,
      "Ġwisdom": 7713,
      "Ġcostumes": 7714,
      "Ġbrick": 7715,
      "kins": 7716,
      "Ġcutting": 7717,
      "Ġcomple": 7718,
      "Ġdinosaurs": 7719,
      "Really": 7720,
      "Ġfamil": 7721,
      "Ġwooden": 7722,
      "Ġsimple": 7723,
      "Mar": 7724,
      "ĠNutty": 7725,
      "Ġscoop": 7726,
      "omething": 7727,
      "ĠCat": 7728,
      "Ġglitter": 7729,
      "Ġapologize": 7730,
      "Ġwaffles": 7731,
      "Or": 7732,
      "Ġdrag": 7733,
      "Ġimage": 7734,
      "Ġunderground": 7735,
      "Ġcrept": 7736,
      "Ġvisiting": 7737,
      "Ġactiv": 7738,
      "Ġbegin": 7739,
      "Ġ1": 7740,
      "ĠSl": 7741,
      "åµ": 7742,
      "ï¼ı": 7743,
      "ãĢĤâĢĿ": 7744,
      "åĽ½æ°ĳ": 7745,
      "çļĦäºº": 7746,
      "æĺł": 7747,
      "éĥ¨è§ĢæĶ¿": 7748,
      "åĮºåĪĴ": 7749,
      "è¿ľ": 7750,
      "åĩ¡": 7751,
      "å¾ĹåĪ°": 7752,
      "çĽĳ": 7753,
      "åĩºæ¼Ķ": 7754,
      "éļĽ": 7755,
      "ä»ĸä»¬": 7756,
      "å¾·åı·": 7757,
      "çŁŃ": 7758,
      "åİŁåĲį": 7759,
      "è¨Ńè¨Ī": 7760,
      "éłĨ": 7761,
      "åıĳè¡Į": 7762,
      "å½±è©©": 7763,
      "åĽŀåĪ°": 7764,
      "ç»Ħå»º": 7765,
      "çĳ¶": 7766,
      "éĴŁ": 7767,
      "äººæ°ĳåħ±åĴĮåľĭ": 7768,
      "å´ĩ": 7769,
      "çķ¶æĻĤ": 7770,
      "æľįåĬ¡": 7771,
      "Ġstripes": 7772,
      "å±Ĭåħ¨åĽ½æĶ¿åįı": 7773,
      "æķħäºĭ": 7774,
      "æ¢ĿçĽ®": 7775,
      "çĴ°": 7776,
      "éģĬæĪ²": 7777,
      "è²łè²¬": 7778,
      "éĹĩå½±è©©": 7779,
      "éĹĩå½±è©©ç«ł": 7780,
      "uke": 7781,
      "Ġrained": 7782,
      "Ġcatching": 7783,
      "Ġcomforted": 7784,
      "mare": 7785,
      "zag": 7786,
      "Ġweb": 7787,
      "Ġweighed": 7788,
      "Ġcuriosity": 7789,
      "ĠSunday": 7790,
      "ĠQu": 7791,
      "Ġsix": 7792,
      "Ġbrid": 7793,
      "Ġwreck": 7794,
      "ĠĠĊ": 7795,
      "ĠAm": 7796,
      "usan": 7797,
      "Ġbye": 7798,
      "ĠSpark": 7799,
      "Ġladyb": 7800,
      "Luckily": 7801,
      "Ġseas": 7802,
      "Ġarea": 7803,
      "Ġanswers": 7804,
      "ĠChrist": 7805,
      "ding": 7806,
      "ilo": 7807,
      "Ġsadness": 7808,
      "Ġsteel": 7809,
      "Ġdisturbed": 7810,
      "Ah": 7811,
      "Ġfreeze": 7812,
      "Ġfascinated": 7813,
      "Ġ|": 7814,
      "ishes": 7815,
      "enty": 7816,
      "ĠAn": 7817,
      "Ġnightmare": 7818,
      "Ġmenu": 7819,
      "Ġvillagers": 7820,
      "56": 7821,
      "mble": 7822,
      "Ġripped": 7823,
      "Ġsting": 7824,
      "Ġknelt": 7825,
      "åĨµ": 7826,
      "åĨĻ": 7827,
      "åĨĽæĶ¿": 7828,
      "å¾Ĵ": 7829,
      "ä¸ĢçĽ´": 7830,
      "ä½ł": 7831,
      "Ġstruggled": 7832,
      "å°ĨåĨĽ": 7833,
      "åºĵ": 7834,
      "å¤§çļĦ": 7835,
      "çĶŁæ´»": 7836,
      "æĭľ": 7837,
      "è¨Ĥ": 7838,
      "çľ¼": 7839,
      "æłĩ": 7840,
      "åľ°éĿ¢": 7841,
      "ä½ľçĤº": 7842,
      "æĽ¾ç¶ĵ": 7843,
      "ä¼ļè®®": 7844,
      "å»ºçŃĳ": 7845,
      "é¡¯": 7846,
      "æı´": 7847,
      "å·´ä¼Ĳ": 7848,
      "æģĲ": 7849,
      "ä¿Ŀå®ī": 7850,
      "2007": 7851,
      "ç¬¬ä¸īçĶ²": 7852,
      "1928": 7853,
      "æ¯Ķè³½": 7854,
      "ä¸ŃåĽ½äººæ°ĳè§£æĶ¾åĨĽéĻĨåĨĽç¬¬äºĮ": 7855,
      "Ġnails": 7856,
      "ä¾įéĥİ": 7857,
      "åĨĽåĮºåī¯åıĤè°ĭéķ¿": 7858,
      "æ¤į": 7859,
      "éĿĴå¹´åĽ¢": 7860,
      "æª¢": 7861,
      "Ġtip": 7862,
      "Ġbare": 7863,
      "Ġcal": 7864,
      "Ġmice": 7865,
      "ĠKe": 7866,
      "iggy": 7867,
      "Ġbeneath": 7868,
      "ĠOl": 7869,
      "Ġgrandmother": 7870,
      "Ġcuddle": 7871,
      "ĠChirpy": 7872,
      "Ġbridges": 7873,
      "ales": 7874,
      "ĠCla": 7875,
      "Ġlandsc": 7876,
      "Ġwonders": 7877,
      "Ġexactly": 7878,
      "neath": 7879,
      "Ġ2": 7880,
      "Ġwaist": 7881,
      "Ġwhatever": 7882,
      "izing": 7883,
      "Ġolives": 7884,
      "Ġitems": 7885,
      "Ġbun": 7886,
      "Ġfash": 7887,
      "ĠTw": 7888,
      "ĠJe": 7889,
      "Ġwrites": 7890,
      "Ġzig": 7891,
      "Ġexamined": 7892,
      "Ġbleeding": 7893,
      "ley": 7894,
      "Ġvict": 7895,
      "annah": 7896,
      "ĠTiny": 7897,
      "Ġbrushed": 7898,
      "Joey": 7899,
      "Ġpancakes": 7900,
      "Ġstealing": 7901,
      "Ġpadd": 7902,
      "Ġprune": 7903,
      "riage": 7904,
      "Ġsnail": 7905,
      "Ġdecorated": 7906,
      "AS": 7907,
      "NE": 7908,
      "Ġsoaring": 7909,
      "Ġdecides": 7910,
      "isten": 7911,
      "Ġpupil": 7912,
      "Ġgloves": 7913,
      "33": 7914,
      "Dave": 7915,
      "éĳ": 7916,
      "Ġ19": 7917,
      "ĠæĹ¥æľ¬": 7918,
      "åįĴ": 7919,
      "Ġtremble": 7920,
      "æ°£": 7921,
      "åŃ«": 7922,
      "å¼¹": 7923,
      "åĬ³": 7924,
      "æŃ¸": 7925,
      "åºĨ": 7926,
      "äºĮä¸ĸ": 7927,
      "å¤§åĪ©": 7928,
      "ç»¥": 7929,
      "åĩł": 7930,
      "ä¸»åĬĽ": 7931,
      "å»ī": 7932,
      "è¥¿çıŃ": 7933,
      "æ±Ŀ": 7934,
      "åĨĽåĮºåıĤè°ĭéķ¿": 7935,
      "åľĭçİĭ": 7936,
      "å£°": 7937,
      "é¢Ħ": 7938,
      "æĶ¿æ²»å¤Ħ": 7939,
      "ä¿Ĭ": 7940,
      "ulu": 7941,
      "äºĭåĭĻ": 7942,
      "äºĭä»¶": 7943,
      "ä»ĸåľ¨": 7944,
      "è»Ĭç«Ļåĳ¨éĤĬ": 7945,
      "è©±": 7946,
      "ä¸įä¹ħ": 7947,
      "æĻĤæľŁ": 7948,
      "éŁ¦": 7949,
      "æŃ¦è£ħ": 7950,
      "æ¼¢": 7951,
      "æ¹¾": 7952,
      "åģ¥": 7953,
      "éĥ½å¸Ĥ": 7954,
      "åıĳçİ°": 7955,
      "è¼¿": 7956,
      "Ġzooming": 7957,
      "000": 7958,
      "Ġtwirling": 7959,
      "ä½ĵèĤ²": 7960,
      "æ±Łè¥¿çľģ": 7961,
      "ä¸¤ä¸ª": 7962,
      "éĻķåĮĹ": 7963,
      "ä¸»ä¹īéĿĴå¹´åĽ¢": 7964,
      "äºĳåįĹ": 7965,
      "ï¼Īï¼Įï¼īï¼Į": 7966,
      "ĠAbigail": 7967,
      "å·´ä¼ĲåĪ©äºŀ": 7968,
      "è¥¿çıŃçīĻ": 7969,
      "ĠBeth": 7970,
      "Ġoutdo": 7971,
      "Ġdownstairs": 7972,
      "aster": 7973,
      "Ġcreation": 7974,
      "Ġowned": 7975,
      "Ġaccom": 7976,
      "looking": 7977,
      "Ġneighbourhood": 7978,
      "terday": 7979,
      "Ġsitu": 7980,
      "Ġstudied": 7981,
      "bert": 7982,
      "Ġdoctors": 7983,
      "dam": 7984,
      "fia": 7985,
      "Ġpeel": 7986,
      "Ġslapped": 7987,
      "Ġbreaking": 7988,
      "Ġvoices": 7989,
      "Ġaccidents": 7990,
      "ĠFrank": 7991,
      "Ġlandscape": 7992,
      "Ġcaut": 7993,
      "ĠHoppy": 7994,
      "ffic": 7995,
      "Ġtastes": 7996,
      "Ġmission": 7997,
      "ĠSanta": 7998,
      "Ġrides": 7999,
      "Ġargued": 8000,
      "Un": 8001,
      "Ġpupp": 8002,
      "Ġprinter": 8003,
      "ĠFloppy": 8004,
      "Andy": 8005,
      "34": 8006,
      "Ġinch": 8007,
      "Ġrealize": 8008,
      "Ġspiders": 8009,
      "Happy": 8010,
      "Tweet": 8011,
      "èŁ": 8012,
      "Ġgained": 8013,
      "ä¸ĺ": 8014,
      "indy": 8015,
      "å¹ķ": 8016,
      "åĨĽæĶ¿å§Ķ": 8017,
      "åľį": 8018,
      "ç«£": 8019,
      "å®®": 8020,
      "æĪĬ": 8021,
      "ç¬¬åħ«": 8022,
      "æĿ¿": 8023,
      "ä¼¦": 8024,
      "å°ĳå°ĨåĨĽè¡Ķ": 8025,
      "åĩ¯": 8026,
      "æī¾": 8027,
      "çĶŁä¸Ńå¼ı": 8028,
      "çĽĽ": 8029,
      "åĮĹåĩºåı£": 8030,
      "æĻļ": 8031,
      "äºĨä¸Ģ": 8032,
      "è¾ĵ": 8033,
      "æł·": 8034,
      "Ġfiremen": 8035,
      "æ³ī": 8036,
      "åĩºéģĵ": 8037,
      "ä¿Ĥ": 8038,
      "1951": 8039,
      "åŁ·": 8040,
      "1941": 8041,
      "åĿĲ": 8042,
      "ç¶ł": 8043,
      "å¼ıæľĪåı°": 8044,
      "è´£": 8045,
      "è´¨": 8046,
      "æĺİæľĿæĶ¿æ²»äººçī©": 8047,
      "ä¸ŃåĽ½åħ±äº§ä¸»ä¹īéĿĴå¹´åĽ¢": 8048,
      "æĶ¯æĮģ": 8049,
      "æģ¯": 8050,
      "Ġtune": 8051,
      "ç¶ĵæ¿Ł": 8052,
      "æ®º": 8053,
      "è±Ĳ": 8054,
      "åĲīæŀĹ": 8055,
      "æ··": 8056,
      "ç¼ĸåħ¥": 8057,
      "æł¹æĵļ": 8058,
      "ç¯ĩ": 8059,
      "æľįåĭĻ": 8060,
      "åħ°å·ŀ": 8061,
      "é²ľ": 8062,
      "éĸĺæ©Ł": 8063,
      "ä¸Ńèı¯äººæ°ĳåħ±åĴĮåľĭ": 8064,
      "å¹´è¢«æİĪäºĪ": 8065,
      "çĽ¸éĹľæ¢ĿçĽ®": 8066,
      "æł¹æį®åľ°": 8067,
      "çĭĢæ³ģ": 8068,
      "åĶ®ç¥¨æ©Ł": 8069,
      "ux": 8070,
      "Ġstruck": 8071,
      "ĠHowever": 8072,
      "Ġfashion": 8073,
      "Ġaccompl": 8074,
      "Sometimes": 8075,
      "ĠThese": 8076,
      "Ġrele": 8077,
      "icorn": 8078,
      "Ġunicorn": 8079,
      "Ġeagle": 8080,
      "Ġlemons": 8081,
      "ĠUncle": 8082,
      "ears": 8083,
      "zen": 8084,
      "owers": 8085,
      "Ġyelling": 8086,
      "Ġsatisfied": 8087,
      "Ġpinched": 8088,
      "ĠRemy": 8089,
      "gers": 8090,
      "Ġdied": 8091,
      "Ġpies": 8092,
      "Ġstretching": 8093,
      "Ġstirring": 8094,
      "Ġunlocked": 8095,
      "Ġtugged": 8096,
      "Ġexit": 8097,
      "Ġwinning": 8098,
      "Ġneighbors": 8099,
      "Ġago": 8100,
      "Ġeats": 8101,
      "Ġjogged": 8102,
      "Ġstrip": 8103,
      "Ġtravell": 8104,
      "rr": 8105,
      "ury": 8106,
      "ĠSomething": 8107,
      "Ġunderneath": 8108,
      "Ġbuckets": 8109,
      "Ġrecognize": 8110,
      "Ġbunnies": 8111,
      "ER": 8112,
      "æĨ": 8113,
      "ç£": 8114,
      "ĠåģĩéĿ¢é¨İå£«": 8115,
      "Ġloving": 8116,
      "çļĦå¥³": 8117,
      "åŃĶ": 8118,
      "å·¨": 8119,
      "åĬ¿": 8120,
      "éĢı": 8121,
      "ä¼į": 8122,
      "ç»Ń": 8123,
      "åįĹéĥ¨": 8124,
      "è¥Ħ": 8125,
      "è¥¿èĹı": 8126,
      "åĽ¢æĶ¿å§Ķ": 8127,
      "è¾ĥ": 8128,
      "1952": 8129,
      "1958": 8130,
      "å¾Įä¾Ĩ": 8131,
      "äºĮçº§åħ«ä¸Ģåĭĭç«ł": 8132,
      "äºĶå¹´": 8133,
      "æŀ¶": 8134,
      "å»ºè¨Ń": 8135,
      "å»ºè®¾": 8136,
      "è³ª": 8137,
      "åĢ«": 8138,
      "çº¢æĺŁ": 8139,
      "ãĢįï¼Ī": 8140,
      "åįĢèŃ°": 8141,
      "éłĵ": 8142,
      "æıı": 8143,
      "èµ·ä¹ī": 8144,
      "å¸ĥåħ°": 8145,
      "æĸ°æ½Łç¸£": 8146,
      "Ġparked": 8147,
      "1988": 8148,
      "çĪ¶äº²": 8149,
      "æ·®": 8150,
      "åĬłåħ¥ä¸ŃåĽ½åħ±äº§åħļ": 8151,
      "åıĹåĪ°": 8152,
      "æ¦Ĥ": 8153,
      "è®Ĭèº«": 8154,
      "åľĺé«Ķ": 8155,
      "é§ķ": 8156,
      "å¸Įå°Ķå¾·": 8157,
      "çĩŁéģĭ": 8158,
      "Ġloaded": 8159,
      "åħ´åĽ½": 8160,
      "æĮĩæĮ¥éĥ¨": 8161,
      "Ġinstruct": 8162,
      "Fluffy": 8163,
      "çĢĳ": 8164,
      "æĮīå¯Łåı¸åī¯ä½¿": 8165,
      "åĬĩåł´çīĪ": 8166,
      "ä¹ĺè»Ĭäººæ¬¡": 8167,
      "å¸ĥåħ°å¾·åı·": 8168,
      "å¸Įå°Ķå¾·å¸ĥåħ°å¾·åı·": 8169,
      "ashed": 8170,
      "Ġpearl": 8171,
      "Ġcontro": 8172,
      "Ġdraws": 8173,
      "Ġkeys": 8174,
      "Ġpiles": 8175,
      "Ġlines": 8176,
      "Ġruin": 8177,
      "ĠBubbles": 8178,
      "Ġemergen": 8179,
      "Ġresponsible": 8180,
      "Ġcompleted": 8181,
      "Ġseason": 8182,
      "Ġtouching": 8183,
      "ĠAnne": 8184,
      "ayla": 8185,
      "Ġwondering": 8186,
      "Ġmarkers": 8187,
      "Ġsights": 8188,
      "Ġencourage": 8189,
      "Ġproperly": 8190,
      "Ġscurried": 8191,
      "aky": 8192,
      "Ġpouring": 8193,
      "Ġpunished": 8194,
      "Ġintroduc": 8195,
      "George": 8196,
      "ira": 8197,
      "ĠBig": 8198,
      "Ġvowed": 8199,
      "Ġtraffic": 8200,
      "Ġbeha": 8201,
      "Ġpockets": 8202,
      "Ġacorns": 8203,
      "Ġcape": 8204,
      "Ġpretti": 8205,
      "Ġchef": 8206,
      "ateri": 8207,
      "Ġclaps": 8208,
      "Ġprettiest": 8209,
      "Ġchallenge": 8210,
      "Yum": 8211,
      "ody": 8212,
      "vin": 8213,
      "é®": 8214,
      "é¼": 8215,
      "ora": 8216,
      "çļĦå¤§": 8217,
      "çļĦéĲµè·¯è»Ĭç«Ļ": 8218,
      "å¤ľ": 8219,
      "Ġvent": 8220,
      "ä¸Ģèµ·": 8221,
      "æľĪèĩ³": 8222,
      "æĪª": 8223,
      "äºĮå¹´": 8224,
      "èĩ¨": 8225,
      "åįĹåĮĹ": 8226,
      "è¥¿åįĹ": 8227,
      "ĠRa": 8228,
      "æĪĲéĥ½": 8229,
      "æĸ°èģŀ": 8230,
      "åĩºèº«": 8231,
      "Ġdrift": 8232,
      "çĪ±": 8233,
      "çľģå§Ķ": 8234,
      "å¸ĪæĶ¿å§Ķ": 8235,
      "å¾·åľĭ": 8236,
      "æ¨£": 8237,
      "åŃ¸æł¡": 8238,
      "è½½": 8239,
      "æŃ¦è¡ĵ": 8240,
      "é¡¹": 8241,
      "å°Ķæ³ķ": 8242,
      "æıĴ": 8243,
      "åıĥèĪĩ": 8244,
      "åıĳçĶŁ": 8245,
      "Ġbouncy": 8246,
      "Goodbye": 8247,
      "å¢¨": 8248,
      "åĲīçĶ°": 8249,
      "éĺ¿æĭī": 8250,
      "æįķ": 8251,
      "è«ĭ": 8252,
      "å±Ĭä¸Ńå¤®": 8253,
      "æ´»åĭķ": 8254,
      "ç¤¾åĮº": 8255,
      "åĬŁåĭĭ": 8256,
      "åħ·æľī": 8257,
      "çĶĺèĤ": 8258,
      "ä¸Ńèı¯æ°ĳåľĭ": 8259,
      "åı¦å¤ĸ": 8260,
      "æĹıèĩªæ²»åİ¿": 8261,
      "æ«ĥ": 8262,
      "é¡¾éĹ®": 8263,
      "ç«£å·¥": 8264,
      "Rex": 8265,
      "zie": 8266,
      "Ġwagging": 8267,
      "Ġmuscles": 8268,
      "xygen": 8269,
      "Ġmittens": 8270,
      "Ġsolut": 8271,
      "Ġoutdoors": 8272,
      "nie": 8273,
      "Ġdam": 8274,
      "Ġkeeps": 8275,
      "avi": 8276,
      "Ġprotected": 8277,
      "ĠJulie": 8278,
      "Ġladybug": 8279,
      "Ġzigzag": 8280,
      "ĠSunny": 8281,
      "Ġsoak": 8282,
      "ledge": 8283,
      "Ġbottles": 8284,
      "Ġbloomed": 8285,
      "Ġshivering": 8286,
      "Ġbarely": 8287,
      "Ġbend": 8288,
      "Ġstamps": 8289,
      "Ġsurface": 8290,
      "uesday": 8291,
      "Ġintroduce": 8292,
      "Ġincrease": 8293,
      "die": 8294,
      "Ġmateri": 8295,
      "Ġloose": 8296,
      "inda": 8297,
      "âĢĿ.": 8298,
      "Ġfrozen": 8299,
      "Ġrubbing": 8300,
      "75": 8301,
      "Cl": 8302,
      "Ġsi": 8303,
      "Ġnicer": 8304,
      "Ġgathering": 8305,
      "Ġinstructions": 8306,
      "69": 8307,
      "Ġåľ¨": 8308,
      "Ġtext": 8309,
      "ä¸Ļ": 8310,
      "Ġlied": 8311,
      "äºķ": 8312,
      "åĨ²": 8313,
      "å¹´åķŁçĶ¨": 8314,
      "Ġroaring": 8315,
      "æĸŃ": 8316,
      "åĪĩ": 8317,
      "èĢ¶": 8318,
      "ä¹Į": 8319,
      "éĥ¨åī¯éĥ¨éķ¿": 8320,
      "å¤§èģ¯çĽŁ": 8321,
      "Ġshoulders": 8322,
      "ç«ĻæĪ¿": 8323,
      "åįĹä¸ĭ": 8324,
      "æķ¦": 8325,
      "è¥¿å®ī": 8326,
      "åĮĹéŃı": 8327,
      "è·Ł": 8328,
      "è¯·": 8329,
      "è¯»": 8330,
      "çĶ±åľĭåŃĲ": 8331,
      "æłĳ": 8332,
      "åħ¬éĸĭ": 8333,
      "åħ¬å°º": 8334,
      "çķª": 8335,
      "ç§ĳèĪīäºº": 8336,
      "ç§ĳç§ĳéķ¿": 8337,
      "æŀª": 8338,
      "ç¤¼": 8339,
      "2008": 8340,
      "ç³»çµ±": 8341,
      "ĠStop": 8342,
      "æŁı": 8343,
      "Ġnetwork": 8344,
      "æ¶ī": 8345,
      "å¸Ŀåľĭ": 8346,
      "çıŃæ¬¡": 8347,
      "æĶ¶åħ¥": 8348,
      "å§Ķåĳĺä¼ļå§Ķåĳĺ": 8349,
      "Ġpowers": 8350,
      "éĽĨåĽ¢åĨĽåī¯åĨĽéķ¿": 8351,
      "åįģä¸ĥå¹´": 8352,
      "é¹¿": 8353,
      "è®Ńç»ĥ": 8354,
      "Ġvictory": 8355,
      "Ġbank": 8356,
      "Ġrocked": 8357,
      "Ġsnowball": 8358,
      "Ġurged": 8359,
      "ĠCoco": 8360,
      "Ġwest": 8361,
      "Ġburrow": 8362,
      "ĠSuzy": 8363,
      "Ġtexture": 8364,
      "Bobby": 8365,
      "ĠTuesday": 8366,
      "imy": 8367,
      "Ġeast": 8368,
      "Ġmachines": 8369,
      "shing": 8370,
      "Ġ4": 8371,
      "ĠJan": 8372,
      "ĠDid": 8373,
      "ĠPip": 8374,
      "Ġplanned": 8375,
      "Ġwinner": 8376,
      "Ġsilence": 8377,
      "Ġdragons": 8378,
      "edding": 8379,
      "Ġdent": 8380,
      "Ġoxygen": 8381,
      "Ġruler": 8382,
      "Ġsiren": 8383,
      ".'": 8384,
      "Ġfoods": 8385,
      "Ġprinted": 8386,
      "Ġmixing": 8387,
      "Ġpurred": 8388,
      "Ġbalancing": 8389,
      "Ġcontrol": 8390,
      "Bella": 8391,
      "nes": 8392,
      "Ġpears": 8393,
      "Ġopin": 8394,
      "Ġteasing": 8395,
      "Ġsupplies": 8396,
      "Ġsneaked": 8397,
      "ĠJones": 8398,
      "Ġpebbles": 8399,
      "Ġstrings": 8400,
      "thank": 8401,
      "Ġplanets": 8402,
      "âĹ": 8403,
      "ednes": 8404,
      "Ġtonight": 8405,
      "ä¸¸": 8406,
      "äºĴ": 8407,
      "Ġrelease": 8408,
      "å¹´åľ¨": 8409,
      "æĶĿ": 8410,
      "æ°ĳç±į": 8411,
      "ä½Ľ": 8412,
      "ç¬¦": 8413,
      "å§Ĳ": 8414,
      "ĠCar": 8415,
      "éĻĿ": 8416,
      "è¿ģ": 8417,
      "èĪĴ": 8418,
      "éĿĪ": 8419,
      "æĺ¯ä½įæĸ¼": 8420,
      "æ±ĩ": 8421,
      "è®ĵ": 8422,
      "åĨĽåĮºåı¸ä»¤åĳĺ": 8423,
      "èĩªçĦ¶": 8424,
      "é¢ĺ": 8425,
      "æľĿé²ľ": 8426,
      "çķ¢": 8427,
      "ç´Ĳ": 8428,
      "1940": 8429,
      "çº¢ä¸ī": 8430,
      "Ġsisters": 8431,
      "çŃīäºº": 8432,
      "å¤©æ´¥": 8433,
      "å¤ļäºº": 8434,
      "æ²³åĮĹ": 8435,
      "Ġrainbows": 8436,
      "1532": 8437,
      "åĳ½åĲįä¸º": 8438,
      "é£ŀ": 8439,
      "å°ıå¾Ħ": 8440,
      "è¼ī": 8441,
      "è»įç±į": 8442,
      "ç®Ĺ": 8443,
      "å¸¸æ»ĳ": 8444,
      "éĹľå±ĭ": 8445,
      "éªĮ": 8446,
      "å»£æĿ±": 8447,
      "æ¦®": 8448,
      "å·´å£«è·¯ç·ļ": 8449,
      "åľŁåľ°": 8450,
      "å±ħæ°ĳ": 8451,
      "ç¢º": 8452,
      "ä½ıå®ħ": 8453,
      "æ§ĭéĢł": 8454,
      "éªĳåħµ": 8455,
      "èĶ¡": 8456,
      "Suica": 8457,
      "åĪºåı²": 8458,
      "çĳ¶æĹıèĩªæ²»åİ¿": 8459,
      "åĬŁåĭĭèį£èªī": 8460,
      "ednesday": 8461,
      "Ġlux": 8462,
      "Ġann": 8463,
      "bbing": 8464,
      "Ġcrumb": 8465,
      "Ġgiggling": 8466,
      "Ġmentioned": 8467,
      "oed": 8468,
      "Ġsides": 8469,
      "exp": 8470,
      "icked": 8471,
      "Ġgrant": 8472,
      "Ġreleased": 8473,
      "Ella": 8474,
      "Ġstair": 8475,
      "ĠLike": 8476,
      "Ġbudge": 8477,
      "Ġourselves": 8478,
      "Ġfigured": 8479,
      "Ġapplauded": 8480,
      "Teddy": 8481,
      "ĠHa": 8482,
      "icky": 8483,
      "ĠLucky": 8484,
      "Ġsteep": 8485,
      "Ġguns": 8486,
      "Ġemergency": 8487,
      "ĠWednesday": 8488,
      "Ġexpect": 8489,
      "Ġshivered": 8490,
      "Ġincluded": 8491,
      "bric": 8492,
      "Ġda": 8493,
      "Ġsoaked": 8494,
      "Ġfabric": 8495,
      "ĠDavid": 8496,
      "Ġmarriage": 8497,
      "ĠChloe": 8498,
      "Ġtickle": 8499,
      "Ġcones": 8500,
      "Ġhonk": 8501,
      "uctantly": 8502,
      "Lola": 8503,
      "Ġsorted": 8504,
      "Ġstole": 8505,
      "ĠBir": 8506,
      "äººå¤§": 8507,
      "æĹ§": 8508,
      "çĶļ": 8509,
      "ä½İ": 8510,
      "ä»»åĳ½": 8511,
      "å±Ĥ": 8512,
      "åĭ³": 8513,
      "æĿĢ": 8514,
      "ä¼ģ": 8515,
      "èİ«": 8516,
      "å»¢": 8517,
      "å½Į": 8518,
      "åĽ¢æĶ¿æ²»å§Ķåĳĺ": 8519,
      "è¨»": 8520,
      "æĬļ": 8521,
      "1954": 8522,
      "éļĶ": 8523,
      "ä»ĸåĢĳ": 8524,
      "æ¬½": 8525,
      "æ¬Ĭ": 8526,
      "ç¥Ģ": 8527,
      "åİŁä½ı": 8528,
      "éĢļéģĵ": 8529,
      "å¤©åºľ": 8530,
      "è´¢": 8531,
      "æĺİæľĿåĪĳ": 8532,
      "ç¬¬ä¸Ģæ¬¡": 8533,
      "éł»": 8534,
      "è²´": 8535,
      "ç¸£çŁ¥ç¸£": 8536,
      "ç©¿": 8537,
      "åĶ¯": 8538,
      "æģĤ": 8539,
      "ä¿ĿæĬ¤": 8540,
      "éĩįæĸ°": 8541,
      "è¿Ľå£«": 8542,
      "éħĴ": 8543,
      "å¡ĺ": 8544,
      "1979": 8545,
      "éĢ£æİ¥": 8546,
      "èĭıèģĶ": 8547,
      "ä¸Ńåįİæ°ĳåĽ½": 8548,
      "åįĹäº¬åĨĽåĮº": 8549,
      "Ġhorns": 8550,
      "åĶĲæľĿ": 8551,
      "ç¦ıå»ºçľģ": 8552,
      "èį£èİ·": 8553,
      "åĨįæ¬¡": 8554,
      "åĶ±çīĩ": 8555,
      "Ġcrowd": 8556,
      "æĳ©": 8557,
      "ä¸ŃåĽ½æŃ¦æľ¯åįıä¼ļå§Ķåĳĺ": 8558,
      "Ġconfident": 8559,
      "çĢĳå¸ĥ": 8560,
      "çĶĺèĤĥ": 8561,
      "çĶ±åľĭåŃĲçĶŁä¸Ńå¼ı": 8562,
      "åĬŁåĭĭèį£èªīç«ł": 8563,
      "omas": 8564,
      "Ġdragged": 8565,
      "Ġcautious": 8566,
      "jam": 8567,
      "owly": 8568,
      "Ġgoodnight": 8569,
      "Ġprints": 8570,
      "Ġcompetition": 8571,
      "Ġdiscovering": 8572,
      "Ġbrushes": 8573,
      "Ġfetch": 8574,
      "Remember": 8575,
      "ĠHop": 8576,
      "Ġsorting": 8577,
      "Pete": 8578,
      "Ġbeard": 8579,
      "Ġpeaches": 8580,
      "Ġmatched": 8581,
      "Ġacted": 8582,
      "uly": 8583,
      "you": 8584,
      "Henry": 8585,
      "Ġbunch": 8586,
      "irm": 8587,
      "Ġherbs": 8588,
      "Mike": 8589,
      "go": 8590,
      "Ġtim": 8591,
      "Ġscreaming": 8592,
      "Ġdusty": 8593,
      "Ġtwinkling": 8594,
      "36": 8595,
      "ĠSusan": 8596,
      "ĠJosh": 8597,
      "though": 8598,
      "Ġproject": 8599,
      "Ġdeser": 8600,
      "Ġentire": 8601,
      "Ġsuitc": 8602,
      "Ġdemanded": 8603,
      "Ġintroduced": 8604,
      "48": 8605,
      "é±": 8606,
      "ana": 8607,
      "ĠBy": 8608,
      "ä¸ŃåŃ¦": 8609,
      "ĠLulu": 8610,
      "å®Ŀ": 8611,
      "éĥŃ": 8612,
      "æĺĨ": 8613,
      "è¡Ģ": 8614,
      "éģ·": 8615,
      "ä¼´": 8616,
      "å¯Ħ": 8617,
      "èİ±": 8618,
      "æī©": 8619,
      "æ±ª": 8620,
      "çĶŁäº§": 8621,
      "è®Ģ": 8622,
      "åľĭå®¶": 8623,
      "æĬµ": 8624,
      "Ġfrosting": 8625,
      "Ġdrives": 8626,
      "ä¾§": 8627,
      "ç§ĳä»ĸ": 8628,
      "è»Ĭç«Ļæ§ĭéĢł": 8629,
      "åºľçŁ¥åºľ": 8630,
      "æ±ŁåįĹ": 8631,
      "åīįçļĦ": 8632,
      "1943": 8633,
      "ä¸Ģçº§çº¢æĺŁ": 8634,
      "éŁ¿": 8635,
      "èĻĽ": 8636,
      "çİĭæľĿ": 8637,
      "ä¸ªä¹¡": 8638,
      "ç¾İåħĥ": 8639,
      "åĽłä¸º": 8640,
      "çĻ¼çı¾": 8641,
      "éĦŃ": 8642,
      "å®ĺæĸ¹": 8643,
      "å·´è¥¿": 8644,
      "èĤ¡": 8645,
      "Ġinterest": 8646,
      "æ¹ĸå»£": 8647,
      "éĵ¶": 8648,
      "éľĸ": 8649,
      "èĹĿ": 8650,
      "å¤Ħå¤Ħéķ¿": 8651,
      "ä¸¦åľ¨": 8652,
      "ä¸Ńå¤®åĨĽå§Ķ": 8653,
      "ç»ıæµİ": 8654,
      "è±¡": 8655,
      "äºŀæ´²": 8656,
      "éĹľä¿Ĥ": 8657,
      "éĴ¢": 8658,
      "å¯ºåºĻ": 8659,
      "éĶĢ": 8660,
      "æŃ»äº¡": 8661,
      "çİĩéĥ¨": 8662,
      "çİĩé¢Ĩ": 8663,
      "çĨĻ": 8664,
      "è¬Ŀ": 8665,
      "åĨ³å®ļ": 8666,
      "çĹħéĢĿ": 8667,
      "åŃĺåľ¨": 8668,
      "åĽ´åī¿": 8669,
      "åĨĽåĮºåī¯æĶ¿æ²»å§Ķåĳĺ": 8670,
      "èĩªå·±çļĦ": 8671,
      "æħ¶ä¸ĭ": 8672,
      "ç¬¬äºĮæ¬¡åĽ½åħ±åĨħæĪĺæĹ¶æľŁ": 8673,
      "èĩºä¸Ńå¸ĤæĶ¿åºľ": 8674,
      "âĸł": 8675,
      "é«ĺéĢŁåħ¬è·¯": 8676,
      "èīºæľ¯": 8677,
      "å±Ĭåħ¨åĽ½æĶ¿åįıå§Ķåĳĺ": 8678,
      "éĺ¿æĭīä¼¯": 8679,
      "å¹´åķŁçĶ¨çļĦéĲµè·¯è»Ĭç«Ļ": 8680,
      "vers": 8681,
      "Ġguest": 8682,
      "Ġpassing": 8683,
      "...": 8684,
      "Ġguys": 8685,
      "bies": 8686,
      "Ġlamb": 8687,
      "Ġpout": 8688,
      "ences": 8689,
      "Ġshock": 8690,
      "Ġslimy": 8691,
      "Ġsweeties": 8692,
      "Ġchewing": 8693,
      "Ġmovies": 8694,
      "Ġsituation": 8695,
      "Ġwedding": 8696,
      "Ġrocking": 8697,
      "Ġbabies": 8698,
      "Ġreluctantly": 8699,
      "Ġpaintings": 8700,
      "Mr": 8701,
      "Ġyouth": 8702,
      "ĠMart": 8703,
      "Ġchat": 8704,
      "Ġforgi": 8705,
      "Ġbaked": 8706,
      "lay": 8707,
      "int": 8708,
      "Ġranger": 8709,
      "Ġblink": 8710,
      "Ġbroom": 8711,
      "Maggie": 8712,
      "Afterwards": 8713,
      "Ġdisagree": 8714,
      "uzz": 8715,
      "Ġplenty": 8716,
      "Ġchases": 8717,
      "Ġknowledge": 8718,
      "Ġstorekeeper": 8719,
      "Ġspraying": 8720,
      "Ġmotion": 8721,
      "reat": 8722,
      "ĠSure": 8723,
      "immer": 8724,
      "une": 8725,
      "Ġcatches": 8726,
      "ĠGr": 8727,
      "ĠAlways": 8728,
      "Ġachieve": 8729,
      "57": 8730,
      "67": 8731,
      "IT": 8732,
      "fit": 8733,
      "esome": 8734,
      "Ġeight": 8735,
      "åį¯": 8736,
      "usted": 8737,
      "å¾ħ": 8738,
      "ä¸ĢåĲĮ": 8739,
      "æĪ´": 8740,
      "åĳĤ": 8741,
      "è¡¡": 8742,
      "åİħ": 8743,
      "æĿĲ": 8744,
      "ç»į": 8745,
      "æĪĲäºĨ": 8746,
      "æ´ŀ": 8747,
      "åŃ¦çĶŁ": 8748,
      "äºĭä¸Ń": 8749,
      "span": 8750,
      "æ¯Ĵ": 8751,
      "åĪ°è¾¾": 8752,
      "åĲĮä»ģ": 8753,
      "ä¸ĸç´Ģ": 8754,
      "è´º": 8755,
      "è£¡": 8756,
      "åı¯ä½¿çĶ¨": 8757,
      "æķĻå¯¼": 8758,
      "ç¬¬ä¸ĢçĻ¾": 8759,
      "è²¨": 8760,
      "å®ĺåĳĺ": 8761,
      "çĽ¸éĦ°": 8762,
      "èĳ£": 8763,
      "èĳĽ": 8764,
      "æħĪ": 8765,
      "èĹį": 8766,
      "æ®¿": 8767,
      "èıĮ": 8768,
      "å°įæĪ°": 8769,
      "1997": 8770,
      "å¤«äºº": 8771,
      "æĪ°çĪŃ": 8772,
      "1978": 8773,
      "ä½¿çĶ¨çĭĢæ³ģ": 8774,
      "ç§°ä¸º": 8775,
      "åħ©äºº": 8776,
      "éĽ·éľĩ": 8777,
      "è®®åĳĺ": 8778,
      "éº»": 8779,
      "å·²ç»ı": 8780,
      "èĴ²": 8781,
      "æ§į": 8782,
      "æ¸¸åĩ»éĺŁ": 8783,
      "éĲµè·¯è»Ĭç«ĻåĪĹè¡¨": 8784,
      "æŃ¥è¡Į": 8785,
      "æĬ¤åį«": 8786,
      "æµİåįĹ": 8787,
      "æ¾³": 8788,
      "ç§ĺæĽ¸": 8789,
      "éĴ±æģĤ": 8790,
      "çĪĨåıĳ": 8791,
      "ĠMatt": 8792,
      "æĮºè¿Ľ": 8793,
      "ĠæĹ¥æľ¬éĲµè·¯è»Ĭç«ĻåĪĹè¡¨": 8794,
      "é®®": 8795,
      "expected": 8796,
      "éł»éģĵ": 8797,
      "é±¼": 8798,
      "çĽ¸éĦ°è»Ĭç«Ļ": 8799,
      "hell": 8800,
      "Ġwink": 8801,
      "Ġgreet": 8802,
      "Ġkicking": 8803,
      "Ġresult": 8804,
      "Ġcamping": 8805,
      "Ġribbons": 8806,
      "Ġsway": 8807,
      "Ġfart": 8808,
      "iles": 8809,
      "lee": 8810,
      "Ġunexpected": 8811,
      "Ġcontest": 8812,
      "Ġluxury": 8813,
      "Fr": 8814,
      "mas": 8815,
      "Ġstaring": 8816,
      "Ġpoking": 8817,
      "Ġunited": 8818,
      "Ġpolishing": 8819,
      "Ġrecorded": 8820,
      "Ġstudying": 8821,
      "Ġdirection": 8822,
      "Ġbecoming": 8823,
      "Ġtruly": 8824,
      "Ġwritten": 8825,
      "Ġwaiter": 8826,
      "Ġcreating": 8827,
      "Ġcheering": 8828,
      "Sophie": 8829,
      "iar": 8830,
      "Ġfirm": 8831,
      "Ġgoals": 8832,
      "Ġhugging": 8833,
      "Ġtowels": 8834,
      "Grace": 8835,
      "eezing": 8836,
      "Ġcountryside": 8837,
      "Ġsighs": 8838,
      "itely": 8839,
      "Ġoutfit": 8840,
      "ĠLi": 8841,
      "ĠCarl": 8842,
      "Ġbravery": 8843,
      "Ġzookeeper": 8844,
      "Ġwandering": 8845,
      "Ġprayer": 8846,
      "Ġblooming": 8847,
      "Ġtrembling": 8848,
      "Mrs": 8849,
      "Ġast": 8850,
      "Ġusual": 8851,
      "Ġpatience": 8852,
      "Ġmatching": 8853,
      "Ġrelief": 8854,
      "Ġcurtains": 8855,
      "Ġmuffins": 8856,
      "Ġprunes": 8857,
      "Ġgazed": 8858,
      "Ġsolution": 8859,
      "agull": 8860,
      "Ġhomework": 8861,
      "ĠFor": 8862,
      "Ġexpected": 8863,
      "Ġroads": 8864,
      "Ġcrackers": 8865,
      "Ġawesome": 8866,
      "Grandpa": 8867,
      "Ġshelves": 8868,
      "37": 8869,
      "39": 8870,
      "Mittens": 8871,
      "è¤": 8872,
      "éĭ": 8873,
      "ĠTilly": 8874,
      "ena": 8875,
      "ä¸¥": 8876,
      "ĠMon": 8877,
      "åıĮ": 8878,
      "æĸĮ": 8879,
      "ç«¯": 8880,
      "åĲķ": 8881,
      "éĥ¨åĵ¡å¤ĸéĥİ": 8882,
      "åİļ": 8883,
      "åĳĺå¤ĸéĥİ": 8884,
      "è¿«": 8885,
      "æĿľ": 8886,
      "åĩ¤": 8887,
      "å¯¨": 8888,
      "æľīäºº": 8889,
      "åĲİæĿ¥": 8890,
      "è¯ģ": 8891,
      "åĪĨèĪ°éĺŁ": 8892,
      "æ³Ĭ": 8893,
      "åĩºçı¾": 8894,
      "ä½ľçĶ¨": 8895,
      "ä½ľæĽ²": 8896,
      "1956": 8897,
      "1957": 8898,
      "ä¸Ĭæĺł": 8899,
      "æĽ¾åľ¨": 8900,
      "å·ŀå¸Ĥ": 8901,
      "Ġarrive": 8902,
      "çµ²": 8903,
      "å®īåİ¿": 8904,
      "æ¯«": 8905,
      "å¾·éĩĮ": 8906,
      "åĿĬ": 8907,
      "ç½ª": 8908,
      "éĻ¢éķ¿": 8909,
      "éĢļéģİ": 8910,
      "æŃ¤å¤ĸ": 8911,
      "Ġhighest": 8912,
      "è£ģ": 8913,
      "æ³ķåľĭ": 8914,
      "åĽłçĤº": 8915,
      "æķĻå¯¼åĳĺ": 8916,
      "æĶ¹ç¼ĸä¸º": 8917,
      "æĿİåĽ½": 8918,
      "2000": 8919,
      "æĸ°æ½Łå¤§åŃ¸": 8920,
      "æ¢°": 8921,
      "ç¦ıæ³½": 8922,
      "åĤĳ": 8923,
      "1961": 8924,
      "ãĥ¼": 8925,
      "èĭıåĮº": 8926,
      "Ġradishes": 8927,
      "åĥħ": 8928,
      "åĥī": 8929,
      "çıŃéķ¿": 8930,
      "æĺ¯ä¸Ģåº§": 8931,
      "æ¡Ĥä¸ľ": 8932,
      "å§Ķåĵ¡æľĥ": 8933,
      "ç¢ĳ": 8934,
      "ç»ĵæĿŁ": 8935,
      "çĬ¯": 8936,
      "ç¡¬": 8937,
      "è¢ģåħĭ": 8938,
      "é¬¥": 8939,
      "èĥŀèĥİ": 8940,
      "è´Łè´£": 8941,
      "æµ·éĺ²èĪ°": 8942,
      "çº¢ä¸ĢåĨĽåĽ¢": 8943,
      "æĶ¿æ²»å¤Ħä¸»ä»»": 8944,
      "æııè¿°": 8945,
      "Ġventured": 8946,
      "ç§ĳä»ĸå·ŀ": 8947,
      "ä¸Ģçº§çº¢æĺŁåĬŁåĭĭèį£èªīç«ł": 8948,
      "æĬ¤åį«èĪ°": 8949,
      "ĠJamie": 8950,
      "Ġmarks": 8951,
      "Ġsausages": 8952,
      "ĠChristmas": 8953,
      "irts": 8954,
      "ĠBye": 8955,
      "Ġseagull": 8956,
      "Ġtheirs": 8957,
      "asm": 8958,
      "Ġowners": 8959,
      "Ġcurly": 8960,
      "reen": 8961,
      "Ġexha": 8962,
      "Ġfault": 8963,
      "Ġflat": 8964,
      "essie": 8965,
      "Ġimportance": 8966,
      "ĠJohnson": 8967,
      "Ġcompletely": 8968,
      "James": 8969,
      "Ġthro": 8970,
      "Ġscales": 8971,
      "Ġsinger": 8972,
      "Ġcuts": 8973,
      "Ġhealed": 8974,
      "Ġdesp": 8975,
      "Ġpoliceman": 8976,
      "Ġlibrarian": 8977,
      "Ġsweets": 8978,
      "Ġpartic": 8979,
      "oline": 8980,
      "Ġpencils": 8981,
      "Ġstrike": 8982,
      "jamas": 8983,
      "47": 8984,
      "Ye": 8985,
      "ĠUnfortunately": 8986,
      "Ġinclude": 8987,
      "njoy": 8988,
      "oh": 8989,
      "Ġti": 8990,
      "Ġfreed": 8991,
      "Ġfoc": 8992,
      "Ġreplac": 8993,
      "Ġsticking": 8994,
      "Ġcaused": 8995,
      "Ġrescued": 8996,
      "Ġregretted": 8997,
      "Ġdentist": 8998,
      "cl": 8999,
      "Ġwound": 9000,
      "Ġslap": 9001,
      "Ġsnugg": 9002,
      "ults": 9003,
      "Ġpastels": 9004,
      "Ġrepeated": 9005,
      "Ġkneeled": 9006,
      "ivery": 9007,
      "Ġstare": 9008,
      "åı¬": 9009,
      "å¹´åºķ": 9010,
      "Ġscra": 9011,
      "åĨĽæĶ¿æ²»éĥ¨ä¸»ä»»": 9012,
      "çļĨ": 9013,
      "Ġworries": 9014,
      "åľĪ": 9015,
      "Ġchips": 9016,
      "æĹĭ": 9017,
      "åĲ«": 9018,
      "1916": 9019,
      "æĪı": 9020,
      "åŃĿ": 9021,
      "çº½": 9022,
      "åĭŀ": 9023,
      "ĠCAS": 9024,
      "è¡Ŀ": 9025,
      "è¿İ": 9026,
      "éģł": 9027,
      "ç§¦": 9028,
      "ç«Ļå¼ı": 9029,
      "è®©": 9030,
      "è·¡": 9031,
      "åħ¥åı£": 9032,
      "åİ¿åŁİ": 9033,
      "1959": 9034,
      "éļ¾": 9035,
      "å·ŀåĪºåı²": 9036,
      "å¹³æĸ¹": 9037,
      "å¸Īç¬¬": 9038,
      "é«ĺåº¦": 9039,
      "1942": 9040,
      "çŁ¿": 9041,
      "èŃī": 9042,
      "èĭ¯": 9043,
      "åĿ¤": 9044,
      "ä¸ªæľĪ": 9045,
      "çıį": 9046,
      "æĵį": 9047,
      "åįİä¸ľ": 9048,
      "åıĥæĶ¿": 9049,
      "158": 9050,
      "æĿİç¦ıæ³½": 9051,
      "è¼ĥ": 9052,
      "æľĢé«ĺ": 9053,
      "æľĢçµĤ": 9054,
      "ä»£è¡¨å¤§ä¼ļ": 9055,
      "å¢ĵ": 9056,
      "ä¾Ĩèĩª": 9057,
      "1926": 9058,
      "æ¶¯": 9059,
      "åıĪåĲį": 9060,
      "æıĲä¾Ľ": 9061,
      "è¿ĻäºĽ": 9062,
      "åķĨåºĹ": 9063,
      "è¨ĪåĬĥ": 9064,
      "åıĸå¾Ĺ": 9065,
      "ç¾İåľĭèģ·": 9066,
      "åįģä¸īå¹´": 9067,
      "ç¨±çĤº": 9068,
      "éĽĨåĽ¢åĨĽåĨĽéķ¿": 9069,
      "åĸ®ä½į": 9070,
      "åĸ®æĽ²": 9071,
      "èĦ±": 9072,
      "å¹¿å·ŀåĨĽåĮº": 9073,
      "çĵ¦å°Ķ": 9074,
      "è¡ĮæĶ¿åĮºåĪĴ": 9075,
      "æ³½ä¸ľ": 9076,
      "å¢ŀåĬł": 9077,
      "æ»¡æ´²": 9078,
      "æ¯Ľæ³½ä¸ľ": 9079,
      "Ġreveal": 9080,
      "æ²Īéĺ³åĨĽåĮº": 9081,
      "è·¨ç«Ļå¼ı": 9082,
      "ç§ĺä¹¦": 9083,
      "èĸ©åħĭ": 9084,
      "èĥľåĪ©": 9085,
      "çº¢åĽĽæĸ¹éĿ¢åĨĽ": 9086,
      "Ġactivities": 9087,
      "å¹´è¢«æİĪäºĪå°ĳå°ĨåĨĽè¡Ķ": 9088,
      "éĻĿè¥¿": 9089,
      "è·¨ç«Ļå¼ıç«ĻæĪ¿": 9090,
      "Ġrolls": 9091,
      "Ġgrowling": 9092,
      "Ġpastries": 9093,
      "Ġexhausted": 9094,
      "rance": 9095,
      "igi": 9096,
      "Ġspike": 9097,
      "izzie": 9098,
      "ophia": 9099,
      "Ġscru": 9100,
      "cuse": 9101,
      "ĠRabbit": 9102,
      "Yeah": 9103,
      "hins": 9104,
      "Ġroots": 9105,
      "ĠRob": 9106,
      "ĠBetty": 9107,
      "Kitty": 9108,
      "Ġdared": 9109,
      "Ġcans": 9110,
      "Ġleap": 9111,
      "opes": 9112,
      "ĠLizzy": 9113,
      "ĠJenna": 9114,
      "Ġgrowl": 9115,
      "Ġcrabs": 9116,
      "Harry": 9117,
      "ew": 9118,
      "Ġargu": 9119,
      "Ġreaching": 9120,
      "Ġpenguins": 9121,
      "Ġtraveled": 9122,
      "acob": 9123,
      "Ġinviting": 9124,
      "Ġrockets": 9125,
      "However": 9126,
      "Ġparticular": 9127,
      "Ġarguing": 9128,
      "Ġchuck": 9129,
      "oys": 9130,
      "Ġthreat": 9131,
      "Ġvanish": 9132,
      "Ġstruggle": 9133,
      "Excuse": 9134,
      "Ġthroat": 9135,
      "udy": 9136,
      "ĠSadly": 9137,
      "Ġshined": 9138,
      "Ġboom": 9139,
      "Ġlearns": 9140,
      "Ġcoloured": 9141,
      "Ġpeeking": 9142,
      "45": 9143,
      "èŀ": 9144,
      "ĠYes": 9145,
      "hello": 9146,
      "ĠTess": 9147,
      "ï¼ĮãĢĬ": 9148,
      "åį»": 9149,
      "ĠLuke": 9150,
      "åĪĥ": 9151,
      "åľ¨åĮĹäº¬": 9152,
      "éĩĩ": 9153,
      "åįĹè¾¾": 9154,
      "å»ģ": 9155,
      "è¥¿åįĢ": 9156,
      "å¥ĸ": 9157,
      "å¥Ĺ": 9158,
      "åħ±æľī": 9159,
      "åľĭéļĽ": 9160,
      "æĭĵ": 9161,
      "è¯¸": 9162,
      "è¯Ĺ": 9163,
      "å£®": 9164,
      "æĪĺå£«": 9165,
      "è·¯æĺĵ": 9166,
      "æ¬£": 9167,
      "è¦º": 9168,
      "olive": 9169,
      "çŃīæĪĺå½¹": 9170,
      "çī¹åĬ¡": 9171,
      "è¨Ńæĸ½": 9172,
      "è¶Ļ": 9173,
      "åĽłçĹħ": 9174,
      "åħĭéĩĮ": 9175,
      "æ¥Ĭ": 9176,
      "æĶ¹ä¸º": 9177,
      "æĶ¹ç·¨": 9178,
      "å±Ģéķ·": 9179,
      "éĩįå»º": 9180,
      "ç±³åħĭ": 9181,
      "åħ§è¨Ńæľī": 9182,
      "Ġsafer": 9183,
      "èĳ¬": 9184,
      "æħĭ": 9185,
      "æ£ī": 9186,
      "çµĲå©ļ": 9187,
      "çµĲæĿŁ": 9188,
      "1965": 9189,
      "æĿĳäºº": 9190,
      "çĸı": 9191,
      "åĨľæ°ĳ": 9192,
      "ãĥ³": 9193,
      "çĥŁ": 9194,
      "ä¸Ńåħ±ä¸Ńå¤®": 9195,
      "å½ĵéĢī": 9196,
      "è®®éĻ¢": 9197,
      "åĬŁèĥ½": 9198,
      "çĨ±": 9199,
      "å¦»åŃĲ": 9200,
      "æĹ©æľŁ": 9201,
      "æµĻæ±Łçľģ": 9202,
      "ä½Ļäºº": 9203,
      "è¾¹åĮº": 9204,
      "äº¨åĪ©": 9205,
      "æĸ°åĽĽåĨĽ": 9206,
      "æİ§åĪ¶": 9207,
      "å¯Įå·Ŀçĳ¶æĹıèĩªæ²»åİ¿": 9208,
      "åľ°éĿ¢è»Ĭç«Ļ": 9209,
      "Ġdelivery": 9210,
      "Ġpretends": 9211,
      "Ġpatted": 9212,
      "Ġtrips": 9213,
      "ĠâĢĺ": 9214,
      "Ġseems": 9215,
      "Ġsneaky": 9216,
      "Ġdirect": 9217,
      "Ġcash": 9218,
      "Ġstartled": 9219,
      "Ġhowever": 9220,
      "Ġcomm": 9221,
      "Ġpajamas": 9222,
      "Ġmisses": 9223,
      "ĠLeave": 9224,
      "ĠClaire": 9225,
      "EN": 9226,
      "Ġden": 9227,
      "iding": 9228,
      "Ġuses": 9229,
      "Ġopening": 9230,
      "Ġsingle": 9231,
      "Ġleader": 9232,
      "Ġdolphins": 9233,
      "Ġcrumbs": 9234,
      "Alex": 9235,
      "ords": 9236,
      "Ġbelly": 9237,
      "elle": 9238,
      "Ġsnakes": 9239,
      "Ġremoved": 9240,
      "ĠOut": 9241,
      "Ġflags": 9242,
      "Ġwiggled": 9243,
      "hee": 9244,
      "Ġheel": 9245,
      "Ġstolen": 9246,
      "ĠJulia": 9247,
      "Ġsuitcase": 9248,
      "Millie": 9249,
      "Ġheav": 9250,
      "ĠAdam": 9251,
      "ĠLou": 9252,
      "Ġflames": 9253,
      "angled": 9254,
      "Ġpots": 9255,
      "Ġdesert": 9256,
      "ran": 9257,
      "Ġty": 9258,
      "Ġlung": 9259,
      "ĠLinda": 9260,
      "Ġswooped": 9261,
      "Ġworker": 9262,
      "Ġvalued": 9263,
      "Annie": 9264,
      "Ġfara": 9265,
      "Ġobserved": 9266,
      "Ġfaraway": 9267,
      "65": 9268,
      "73": 9269,
      "Uh": 9270,
      "éį": 9271,
      "Ġ/": 9272,
      "ĠãĢĬ": 9273,
      "Ġga": 9274,
      "ä¸ĳ": 9275,
      "ãĢĤãĢį": 9276,
      "åĨ¯": 9277,
      "åıĶ": 9278,
      "äººåĵ¡": 9279,
      "æĸĳ": 9280,
      "ç«¥": 9281,
      "åĲ¾": 9282,
      "å®³": 9283,
      "çĶ³": 9284,
      "åĪĬ": 9285,
      "åŃ©": 9286,
      "âĢĿãĢģ": 9287,
      "æĶ¿åĭĻ": 9288,
      "è¡£": 9289,
      "å¤§æŃ£": 9290,
      "éĺ»": 9291,
      "æİ¢": 9292,
      "åįĹåĩºåı£": 9293,
      "éĽ¨": 9294,
      "çĶŁæ¶¯": 9295,
      "å½¼": 9296,
      "ç«ĭæ³ķ": 9297,
      "åĨĽåĮºç¬¬äºĮ": 9298,
      "æĻº": 9299,
      "æĭ¿": 9300,
      "è¯¯": 9301,
      "è¾ŀ": 9302,
      "åĵį": 9303,
      "åĩºéĽ²": 9304,
      "æĢĢ": 9305,
      "å»ºéĢł": 9306,
      "ä¸ĸçºª": 9307,
      "è³Ī": 9308,
      "éŁ©": 9309,
      "éĿ¢ç§¯": 9310,
      "Ġteaches": 9311,
      "æł¡åľĴ": 9312,
      "è²¡": 9313,
      "åįİåĮĹ": 9314,
      "åħ¼ä»»": 9315,
      "å±Ģéķ¿": 9316,
      "ä¿ĿæĮģ": 9317,
      "éĩįè¦ģ": 9318,
      "æİ¥åıĹ": 9319,
      "ç¥ĸçĪ¶": 9320,
      "çĽ´éļ¶": 9321,
      "çĳŁ": 9322,
      "1960": 9323,
      "åĬĩæĥħ": 9324,
      "éĿĴå²Ľ": 9325,
      "åĥ¹": 9326,
      "ç¿Ĵ": 9327,
      "åįĩä»»": 9328,
      "æĥħåĨµ": 9329,
      "åĮĹäº¬åĨĽåĮº": 9330,
      "çªĹ": 9331,
      "å·¥ç¨ĭåħµ": 9332,
      "éģ¸èĪī": 9333,
      "è½¬åħ¥": 9334,
      "åĨĢé²ģ": 9335,
      "é§Ľ": 9336,
      "åı¯ä»¥æĮĩ": 9337,
      "éļ¨èĳĹ": 9338,
      "åįģåĽĽå¹´": 9339,
      "æ¨¡å¼ı": 9340,
      "æ¾¤": 9341,
      "èĵ®": 9342,
      "èĵĿ": 9343,
      "åı¦ä¸Ģ": 9344,
      "éĽĻèĥŀèĥİ": 9345,
      "Ġtwinkle": 9346,
      "Ġgroceries": 9347,
      "æĤŁ": 9348,
      "çģ°èĿ¶å±¬": 9349,
      "å¸¸å§Ķä¼ļ": 9350,
      "ç¯ĢçĽ®": 9351,
      "èªįçĤº": 9352,
      "æĪĬåŃĲ": 9353,
      "åįĢèŃ°æľĥ": 9354,
      "çķ¢æ¥Ń": 9355,
      "ç´Ĳç´Ħ": 9356,
      "æĿİåĽ½æĿ°": 9357,
      "åįĹè¾¾ç§ĳä»ĸå·ŀ": 9358,
      "Ġ18": 9359,
      "Ġorganizing": 9360,
      "Charlie": 9361,
      "Ġsquealed": 9362,
      "Ġquacked": 9363,
      "Ġbalanced": 9364,
      "Ġopinion": 9365,
      "Ġfarther": 9366,
      "Sandy": 9367,
      "Ġliqu": 9368,
      "boat": 9369,
      "Ġfairies": 9370,
      "Ġentrance": 9371,
      "Ġbaker": 9372,
      "Ġcautiously": 9373,
      "Ġinterested": 9374,
      "Ġreplaced": 9375,
      "Ġliquid": 9376,
      "Ġlined": 9377,
      "Ġrisk": 9378,
      "Ġstern": 9379,
      "ican": 9380,
      "Ġeverybody": 9381,
      "Ġtwin": 9382,
      "Ġmarker": 9383,
      "Ġcelebration": 9384,
      "Ġitchy": 9385,
      "Ġboo": 9386,
      "Ġcott": 9387,
      "umm": 9388,
      "Ġwires": 9389,
      "Ġfuzzy": 9390,
      "Ġprovided": 9391,
      "ĠJeff": 9392,
      "ently": 9393,
      "ĠJon": 9394,
      "Ġunf": 9395,
      "Ġpolished": 9396,
      "brush": 9397,
      "Ġagrees": 9398,
      "ĠSlowly": 9399,
      "well": 9400,
      "Ġ*": 9401,
      "Ġwasted": 9402,
      "Ġmane": 9403,
      "Ġseesaw": 9404,
      "Ġwinked": 9405,
      "ĠZoom": 9406,
      "Ġlollipops": 9407,
      "ĠSuzie": 9408,
      "uri": 9409,
      "ĠWater": 9410,
      "Ġfaced": 9411,
      "Ġcolored": 9412,
      "Ġreply": 9413,
      "IN": 9414,
      "dies": 9415,
      "Ġdipped": 9416,
      "Ġresting": 9417,
      "Ġtickled": 9418,
      "ĠBuzzy": 9419,
[...]
